<unk>	0
<s>	0
</s>	0
▁=	-3.27283
▁i	-3.67522
,	-3.68411
▁"	-3.69852
;	-3.72048
▁n	-3.76026
▁(	-3.81459
[	-3.83405
▁a	-3.99206
i	-3.99956
▁to	-4.10399
▁if	-4.16477
▁<<	-4.2088
]	-4.25135
▁{	-4.34045
"	-4.46232
▁for	-4.51818
▁>>	-4.54311
▁s	-4.56967
▁-	-4.60212
)	-4.60306
▁long	-4.61136
▁+	-4.61229
▁0	-4.61765
int	-4.6645
;"	-4.6834
▁is	-4.68729
▁b	-4.68858
▁int	-4.71346
▁and	-4.73094
▁1	-4.80637
▁x	-4.87402
▁else	-4.87757
(	-4.98191
▁j	-4.98445
▁m	-4.98491
▁cin	-5.05086
▁of	-5.0614
n	-5.06237
▁print	-5.06256
▁0;	-5.0646
▁k	-5.06881
▁c	-5.06927
▁read	-5.08824
▁<	-5.10001
▁""	-5.11301
▁ans	-5.1192
▁==	-5.12495
▁endl	-5.17626
++)	-5.19578
▁*	-5.26492
▁integer	-5.27215
▁set	-5.32079
1	-5.35315
j	-5.37308
a	-5.384
▁	-5.39037
▁with	-5.42314
▁cout	-5.42771
▁t	-5.47293
""	-5.48564
▁y	-5.50036
.	-5.54324
2	-5.54411
▁2	-5.54467
▁1;	-5.5616
▁/	-5.56623
▁}	-5.60281
▁exclusive	-5.62707
▁sum	-5.68051
s	-5.69478
cout	-5.70329
▁increment	-5.7788
if	-5.7817
▁d	-5.80347
▁<=	-5.80405
▁p	-5.83011
▁%	-5.83871
▁the	-5.87225
▁create	-5.87861
▁while	-5.90935
▁than	-5.92777
x	-5.93162
▁l	-5.96038
▁equal	-5.96239
▁return	-5.98743
▁v	-5.99811
▁r	-6.00783
▁by	-6.03545
print	-6.08131
▁>	-6.08472
];	-6.10193
▁'	-6.11051
_	-6.1204
▁0)	-6.14199
▁integers	-6.14534
▁1)	-6.1468
▁string	-6.16432
▁&	-6.18172
][	-6.21442
++;	-6.21529
▁size	-6.23814
▁arr	-6.2487
▁from	-6.24903
▁0,	-6.25535
▁+=	-6.26133
▁cnt	-6.26287
for	-6.27467
&	-6.27765
long	-6.29551
▁array	-6.30091
▁new	-6.33466
▁declare	-6.3428
▁be	-6.36616
▁newline	-6.3782
b	-6.38964
▁value	-6.44824
▁inclusive	-6.46548
[0]	-6.47402
▁min	-6.48309
▁!=	-6.50452
▁let	-6.50782
▁1]	-6.51543
=	-6.52465
▁f	-6.52631
▁max	-6.52809
▁greater	-6.53111
k	-6.56115
"""	-6.58661
'	-6.59213
3	-6.59278
▁>=	-6.59582
▁or	-6.59972
▁break	-6.63002
▁loop	-6.63302
▁true	-6.64202
▁less	-6.66385
O	-6.66564
▁num	-6.71144
e	-6.71634
▁count	-6.74497
▁res	-6.74593
▁flag	-6.74781
);	-6.76228
t	-6.7649
1,	-6.78672
d	-6.82045
▁str	-6.82672
create	-6.83021
f	-6.83225
c	-6.83402
▁not	-6.83439
size	-6.83914
▁3	-6.845
▁q	-6.85352
ing	-6.85586
NO	-6.86026
();	-6.87136
▁temp	-6.87261
m	-6.88329
▁line	-6.88748
y	-6.92007
()	-6.93763
read	-6.95937
▁then	-6.98242
])	-6.98315
YES	-6.9878
▁10	-6.99601
[1]	-7.02128
▁input	-7.02646
▁2;	-7.04545
▁z	-7.05129
▁2)	-7.05921
▁const	-7.06513
▁length	-7.06879
<	-7.07185
▁decrement	-7.08253
▁false	-7.09455
▁w	-7.10442
▁function	-7.12561
>	-7.14126
▁0"	-7.15539
\	-7.16231
declare	-7.17286
▁N	-7.17408
p	-7.19188
▁++	-7.20042
▁char	-7.22312
=0	-7.22359
▁vector	-7.22435
l	-7.23569
▁1,	-7.24254
||	-7.25672
▁h	-7.2575
▁-1	-7.27751
▁""\	-7.27912
▁do	-7.28892
▁mod	-7.2992
ans	-7.30621
string	-7.31894
o	-7.32469
]"	-7.32564
▁increase	-7.34737
▁assign	-7.35677
r	-7.37298
▁change	-7.39357
▁modulo	-7.3955
▁variable	-7.39705
▁4	-7.39982
▁len	-7.40167
▁dp	-7.42503
▁add	-7.43224
▁5	-7.45768
▁ch	-7.46122
v	-7.47399
▁A	-7.48402
▁bool	-7.51969
▁in	-7.52538
))	-7.55254
▁following	-7.55351
▁as	-7.57215
▁'\	-7.57439
▁e	-7.57666
▁abs	-7.57801
')	-7.57989
▁g	-7.58273
▁u	-7.58319
let	-7.59069
--)	-7.59865
▁tmp	-7.60611
2,	-7.60974
▁result	-7.63957
▁((	-7.64688
▁{"	-7.6473
▁character	-7.72151
[2]	-7.72362
length	-7.72368
▁elements	-7.73479
▁7	-7.76167
▁one	-7.76476
▁constant	-7.77358
▁gcd	-7.7762
';	-7.78668
push	-7.79046
▁arguments	-7.79504
--;	-7.80115
▁maxn	-7.80897
▁output	-7.80926
▁mx	-7.81097
sum	-7.82679
▁end	-7.82716
▁-=	-7.8296
sort	-7.82982
back	-7.83268
▁1"	-7.84498
cin	-7.84591
arr	-7.84918
▁st	-7.85174
▁element	-7.8534
▁)	-7.87653
2)	-7.91691
▁sort	-7.926
▁call	-7.93738
▁mp	-7.94725
▁ints	-7.97191
▁continue	-7.98552
▁S	-7.99367
end	-8.00661
-	-8.0103
9	-8.03476
())	-8.03603
str	-8.03717
▁void	-8.04072
▁10;	-8.06444
begin	-8.06871
A	-8.07052
1[	-8.08583
▁3;	-8.09921
"")	-8.11521
0	-8.12457
ed	-8.12573
D	-8.13711
▁an	-8.13792
▁mn	-8.15109
▁pos	-8.15778
(),	-8.16111
▁equals	-8.16218
while	-8.16285
▁double	-8.16929
▁total	-8.16971
)"	-8.1721
▁longs	-8.18833
▁'0'	-8.19202
▁argument	-8.19468
▁1])	-8.1954
=1	-8.19983
▁start	-8.20423
],	-8.21518
▁values	-8.21571
R	-8.22011
▁ar	-8.22108
▁it	-8.22204
set	-8.22296
▁1][	-8.23022
u	-8.23175
▁8	-8.23709
▁M	-8.24058
▁boolean	-8.2515
char	-8.25419
▁strings	-8.25678
▁variables	-8.25966
cnt	-8.26123
▁?	-8.26661
▁run	-8.27802
▁standar	-8.27958
▁(!	-8.28228
▁:	-8.29751
Read	-8.2983
▁B	-8.29849
▁mid	-8.30996
▁first	-8.31591
▁at	-8.32872
return	-8.32999
5	-8.33262
▁vis	-8.3331
▁solve	-8.33472
2;	-8.33775
▁6	-8.33952
2[	-8.34756
▁T	-8.35108
▁MOD	-8.36961
1)	-8.38034
[3]	-8.38509
▁100	-8.38722
▁INF	-8.38998
▁make	-8.39612
max	-8.40237
▁name	-8.40503
q	-8.40661
min	-8.40735
▁-1,	-8.40931
num	-8.40978
▁index	-8.41356
▁absolute	-8.41357
].	-8.42343
▁check	-8.44078
flag	-8.45821
h	-8.46001
▁ok	-8.46303
▁sizeof	-8.46594
z	-8.46737
▁cur	-8.47573
▁o	-8.47724
▁5;	-8.48433
▁NO	-8.48915
▁now	-8.48948
▁decrease	-8.49515
▁last	-8.49648
▁minimum	-8.52953
N	-8.53275
▁that	-8.54091
▁even	-8.57187
]);	-8.57444
▁YES	-8.57676
temp	-8.58112
▁val	-8.58236
second	-8.5872
▁ss	-8.59058
S	-8.6059
▁3)	-8.61605
▁""|	-8.61745
first	-8.62494
▁maximum	-8.63712
-1]	-8.64623
in	-8.6622
▁counter	-8.66864
▁|	-8.68512
▁R	-8.68646
▁1000	-8.6882
▁arrays	-8.69878
▁C	-8.70421
▁are	-8.70502
▁4;	-8.70998
▁maxx	-8.7128
▁swap	-8.7131
▁append	-8.72695
▁ret	-8.7295
res	-8.7376
▁map	-8.73852
"",	-8.74228
▁L	-8.74318
memset	-8.75155
L	-8.75393
B	-8.75641
w	-8.75737
else	-8.75905
2"	-8.76068
abs	-8.76907
pos	-8.77037
][0]	-8.77233
MAX	-8.77648
T	-8.7772
map	-8.77724
',	-8.78535
▁1))	-8.80156
▁inf	-8.80606
▁1);	-8.80736
LL	-8.81111
count	-8.8127
▁stop	-8.81522
ch	-8.81861
▁prime	-8.82021
▁2,	-8.82045
▁second	-8.82244
1;	-8.82475
▁user	-8.83421
▁-1;	-8.84787
g	-8.85093
-----------	-8.85331
▁tot	-8.85431
▁push	-8.85613
']	-8.86449
insert	-8.87315
4	-8.87324
+	-8.87364
▁all	-8.88226
▁1];	-8.88747
▁MAX	-8.89003
▁INT	-8.89297
▁vec	-8.90044
▁7;	-8.91117
▁otherwise	-8.9152
[4]	-8.91772
▁105	-8.9234
▁getchar	-8.92788
▁insert	-8.94392
▁characters	-8.94946
▁define	-8.95323
integers	-8.9545
▁on	-8.97577
+1]	-8.97957
▁cost	-8.98213
▁right	-8.99522
▁left	-9.00082
▁minn	-9.0046
(""	-9.00612
]++;	-9.0075
▁tak	-9.00838
<<	-9.01706
▁'1'	-9.02386
dp	-9.03094
▁dfs	-9.03394
▁""0""	-9.04074
maxn	-9.0462
▁divide	-9.04718
find	-9.05086
-1	-9.05088
array	-9.06492
▁row	-9.0793
▁cont	-9.08042
][1]	-9.08241
integer	-9.08605
▁time	-9.0977
▁times	-9.0983
▁odd	-9.10104
U	-9.10771
*	-9.10951
▁26	-9.12222
▁answer	-9.13175
▁!	-9.13267
▁2]	-9.13334
▁8;	-9.14097
▁MAXN	-9.14758
▁number	-9.15362
▁iteration	-9.15469
▁aux	-9.17098
3,	-9.17599
▁10)	-9.1767
▁each	-9.17673
▁9	-9.18203
▁""+	-9.18368
▁""-1""	-9.18419
▁ct	-9.18777
▁pre	-9.19754
[5]	-9.1988
▁strlen	-9.20243
+1	-9.20767
▁'0')	-9.21208
1.	-9.21979
M	-9.22589
puts	-9.22726
gcd	-9.23814
▁4)	-9.24434
▁ara	-9.24538
vector	-9.24602
▁xx	-9.24844
substr	-9.25953
▁%=	-9.2656
C	-9.26896
▁maxi	-9.28154
▁D	-9.2844
▁pointer	-9.28944
▁5)	-9.29039
▁101	-9.29046
-------------+""	-9.29757
▁curr	-9.30114
▁30	-9.30122
th	-9.30367
pair	-9.30981
▁X	-9.31217
len	-9.31441
▁subtract	-9.3172
▁remove	-9.3189
[0];	-9.32341
▁'0';	-9.32765
▁""#""	-9.32967
tmp	-9.34002
++	-9.34115
▁_	-9.34435
▁diff	-9.35053
▁P	-9.35301
▁next	-9.35519
[0])	-9.35714
▁prev	-9.36078
▁dist	-9.36533
bool	-9.36828
start	-9.37081
▁out	-9.37239
▁-1)	-9.37634
st	-9.38011
6	-9.3804
▁takes	-9.38072
▁'*'	-9.38212
[1])	-9.38381
▁60	-9.38857
▁bitwise	-9.3903
▁20	-9.39071
▁1000000007	-9.39256
▁mark	-9.39465
▁exit	-9.39699
▁col	-9.39818
here	-9.39821
mx	-9.39866
No	-9.40952
▁truthy	-9.41029
▁top	-9.41927
▁between	-9.42047
▁two	-9.42061
Yes	-9.42501
▁initialize	-9.4308
▁inline	-9.43166
1[0]	-9.43457
▁space	-9.44113
getline	-9.44544
▁mini	-9.44597
1++;	-9.4488
▁no	-9.45146
▁different	-9.45159
▁unsigned	-9.45357
/	-9.4719
▁dy	-9.48007
▁current	-9.48714
▁sqrt	-9.48919
▁7)	-9.49082
▁step	-9.49984
--	-9.50051
▁base	-9.50317
cur	-9.50578
▁'-'	-9.5073
▁casted	-9.50949
X	-9.51169
▁'-')	-9.51357
▁Max	-9.51628
▁{0};	-9.52139
I	-9.52178
['	-9.53386
▁reading	-9.53393
mp	-9.53469
▁data	-9.5368
it	-9.53725
P	-9.53758
▁'1')	-9.53863
▁G	-9.53928
▁test	-9.54732
▁down	-9.55167
▁word	-9.56049
double	-9.56511
▁get	-9.57224
..........	-9.57488
▁beginning	-9.57888
vis	-9.58014
0,	-9.58064
▁""1""	-9.58121
IG	-9.58324
▁15	-9.58647
1[1]	-9.59097
▁both	-9.59098
increment	-9.59359
[105];	-9.59742
index	-9.60309
▁6;	-9.61126
▁day	-9.61339
▁ma	-9.61535
▁acos	-9.6165
▁position	-9.62096
▁1005	-9.62157
▁bytes	-9.62416
F	-9.62899
▁rem	-9.63358
▁dx	-9.63383
▁12	-9.63732
());	-9.63817
loop	-9.64746
[0][0]	-9.64949
▁ceil	-9.6508
▁power	-9.65378
▁idx	-9.65675
}	-9.65743
++]	-9.65939
▁pow	-9.66704
▁dis	-9.67307
▁{0}	-9.6746
▁mm	-9.68149
▁cmp	-9.68523
▁'.'	-9.69488
▁__	-9.69593
now	-9.69905
▁find	-9.70022
▁100;	-9.70039
▁empty	-9.70134
((	-9.70292
(0);	-9.70912
▁co	-9.71918
▁110	-9.71931
▁PI	-9.72483
G	-9.72588
▁zero	-9.72964
(0,	-9.72971
void	-9.73781
▁100000	-9.74203
erase	-9.75651
▁pq	-9.76466
▁ind	-9.76785
-|	-9.76939
scissors	-9.76958
rock	-9.77054
3)	-9.77071
function	-9.77132
▁can	-9.77183
▁plus	-9.77233
W	-9.77306
▁100005	-9.77353
▁my	-9.77496
64	-9.77651
paper	-9.77943
▁pair	-9.78074
▁""*""	-9.78125
▁up	-9.78433
▁substring	-9.79357
▁Y	-9.80009
▁1000000007;	-9.80213
[6]	-9.80264
|	-9.80453
▁fa	-9.80593
▁price	-9.8088
get	-9.81069
call	-9.81113
▁""-	-9.81205
▁nl	-9.81344
▁np	-9.81822
▁score	-9.83156
▁tt	-9.8316
▁lcm	-9.8324
[0],	-9.83289
/2	-9.83641
2++;	-9.8464
"")"	-9.85051
▁25	-9.85101
▁2);	-9.85126
));	-9.85201
▁{}	-9.85572
mn	-9.85805
▁sz	-9.8588
▁cek	-9.85913
OOOO	-9.86006
[0][	-9.86495
▁go	-9.87238
prime	-9.87779
check	-9.87889
▁'#'	-9.88221
7	-9.88936
▁'9')	-9.89002
▁'+'	-9.89103
▁1001	-9.89115
-------------+	-9.89214
true	-9.8957
mid	-9.89586
▁fast	-9.9069
top	-9.90765
▁'9'	-9.90981
▁50	-9.91053
▁'+')	-9.91121
▁yy	-9.91702
SEGMENT	-9.91718
pop	-9.91778
▁1000;	-9.91928
▁op	-9.92232
Second	-9.92323
▁'*')	-9.92415
▁kol	-9.92475
!	-9.92593
at	-9.92694
▁freq	-9.93002
[0][1]	-9.9301
▁10,	-9.93041
->	-9.9318
▁"".""	-9.9329
▁{0,	-9.9338
Friendship	-9.93472
▁found	-9.93616
▁bb	-9.93656
2.	-9.94111
▁fb	-9.9583
▁win	-9.95868
make	-9.96398
First	-9.96964
▁200	-9.97119
▁digit	-9.9726
▁--	-9.97509
!""	-9.97579
decrement	-9.9758
|)""	-9.97628
▁hi	-9.97751
TRIANGLE	-9.98133
▁multiply	-9.98139
▁high	-9.98175
▁#	-9.98242
▁mat	-9.9853
const	-9.98778
▁init	-9.99482
clear	-9.99987
▁cc	-10.0003
▁root	-10.007
2[0]	-10.0108
▁back	-10.0149
▁ex	-10.0152
3"	-10.0237
▁lo	-10.0286
▁8)	-10.0411
▁reverse	-10.0472
empty	-10.0501
▁'4'	-10.052
OOO	-10.0557
ok	-10.0582
]))	-10.0583
reverse	-10.063
▁5,	-10.0677
▁(((	-10.0682
▁coun	-10.0775
OO	-10.0784
▁multiple	-10.0818
iterator	-10.0827
ar	-10.088
▁""*"";	-10.0902
▁rest	-10.0929
▁bit	-10.0935
▁""-1	-10.0941
▁letter	-10.0977
val	-10.0992
MAXN	-10.1037
▁inp	-10.1091
▁(1)	-10.112
▁primes	-10.1149
▁tb	-10.115
▁lower	-10.1227
idx	-10.1229
left	-10.1231
illed	-10.1287
3;	-10.1329
[3];	-10.1344
▁EPS	-10.136
▁accept	-10.136
define	-10.1374
maxx	-10.1386
▁item	-10.1425
[100];	-10.1544
time	-10.1559
PRINT	-10.1579
LEFT	-10.1584
▁-1}	-10.1597
▁square	-10.1606
▁{1,	-10.163
▁further	-10.1643
>::	-10.1648
[2])	-10.1683
▁55	-10.1692
▁need	-10.1731
(2,	-10.1735
▁low	-10.1735
▁sol	-10.179
▁endline	-10.1792
▁10000	-10.1823
[1][0]	-10.1845
▁2))	-10.1859
▁order	-10.1862
▁6)	-10.1906
▁sy	-10.1949
▁judge	-10.2019
▁best	-10.2026
▁26;	-10.2033
▁vv	-10.2104
(0)	-10.2114
▁us	-10.2124
▁color	-10.2152
▁adj	-10.2185
▁tp	-10.2229
▁bitshift	-10.2233
IMPOSSIBLE	-10.2238
▁dif	-10.2256
▁W	-10.2272
.............|""	-10.2287
▁""#	-10.2293
▁48	-10.2294
▁div	-10.2341
▁dem	-10.2358
▁isprime	-10.2381
name	-10.2454
▁iterat	-10.2456
al	-10.2471
Y	-10.2475
▁pr	-10.2488
[8]	-10.255
input	-10.2565
▁""/""	-10.2622
▁Min	-10.2625
▁11	-10.2668
▁book	-10.2788
[1005];	-10.2826
▁eps	-10.287
▁'8'	-10.2916
▁ck	-10.2919
element	-10.2923
[1][1]	-10.2956
1"	-10.2962
change	-10.2969
8	-10.2976
▁id	-10.2979
▁isPrime	-10.3118
[105],	-10.3129
▁valid	-10.3175
[101];	-10.3227
▁31	-10.3262
Time	-10.3265
▁1}	-10.3282
▁upper	-10.3291
DOWN	-10.3302
UP	-10.3304
[1],	-10.333
▁minx	-10.3345
[100005];	-10.3381
row	-10.3449
▁resp	-10.3476
▁cal	-10.348
[1][	-10.3498
▁chars	-10.3536
▁grid	-10.354
▁'#';	-10.357
▁'('	-10.3618
]]++;	-10.3624
[10];	-10.3626
▁'.')	-10.3639
][2]	-10.3661
▁tc	-10.3672
#.#.#.#.#.#.	-10.3698
▁which	-10.3705
▁dimension	-10.3706
▁myset	-10.3715
18	-10.3715
▁store	-10.3716
▁queue	-10.3738
▁4,	-10.3771
▁iterator	-10.3781
▁point	-10.3793
▁con	-10.3868
▁WINS	-10.3883
▁Arr	-10.3894
▁0}	-10.3915
▁1000000	-10.3945
▁br	-10.3947
▁joy	-10.4
▁100001	-10.4002
swap	-10.4006
▁table	-10.4032
[1];	-10.4062
9;	-10.4063
[4];	-10.4078
[1000];	-10.4087
MIN	-10.4099
▁shift	-10.4157
▁fill	-10.417
▁gap	-10.4172
▁360	-10.4179
add	-10.4193
▁ada	-10.4196
▁9;	-10.4199
▁points	-10.4216
▁hh	-10.4217
[2];	-10.4221
▁skip	-10.4248
2[1]	-10.4256
▁show	-10.4281
▁chest	-10.4289
▁display	-10.4289
[7]	-10.4298
▁remainder	-10.4313
▁fabs	-10.4354
cmp	-10.4407
▁begin	-10.4418
▁sign	-10.4441
▁fin	-10.4461
▁visited	-10.4464
.#.#.#.#.	-10.4513
[2][1]	-10.4519
▁looping	-10.4534
▁Number	-10.4541
▁minus	-10.4546
▁used	-10.4551
▁rows	-10.4576
▁clear	-10.462
▁type	-10.4639
▁re	-10.4657
no	-10.4699
[110];	-10.473
▁nums	-10.4743
diff	-10.4779
last	-10.4779
▁fixed	-10.4838
front	-10.4865
ter	-10.4865
unsigned	-10.4866
▁I	-10.4871
▁suma	-10.4916
▁magic	-10.4922
ll	-10.4933
result	-10.4966
▁1][0]	-10.4973
ret	-10.498
▁sb	-10.4982
[1][2]	-10.5037
ER	-10.5095
▁stack	-10.5126
▁1000000000	-10.5152
Correct	-10.5167
▁blue	-10.5172
.#.#.#.#.#.	-10.5203
▁level	-10.5207
▁stdout	-10.5225
▁OR	-10.5225
▁stream	-10.5243
ss	-10.5253
▁250)	-10.5257
txt	-10.5273
out	-10.5278
mod	-10.5293
▁move	-10.5306
▁fuel	-10.5332
▁father	-10.5338
▁visit	-10.535
RU	-10.5356
Akshat	-10.5367
1);	-10.5368
▁items	-10.5384
▁asc	-10.5422
▁days	-10.5426
▁1010	-10.543
number	-10.5447
▁biceps	-10.5474
red	-10.5491
▁20;	-10.5492
▁'?'	-10.5532
▁good	-10.5549
▁pass	-10.555
▁'*';	-10.5574
▁fl	-10.5587
assign	-10.5588
▁sub	-10.5617
=2	-10.5648
▁fact	-10.5656
▁erase	-10.5661
▁exp	-10.568
▁12;	-10.5681
]=	-10.5708
▁statement	-10.5713
cost	-10.5732
ind	-10.5737
▁dir	-10.5742
▁mult	-10.5777
Malvika	-10.5796
▁'(')	-10.5801
total	-10.5804
▁mas	-10.585
▁97	-10.5873
[0][2]	-10.5888
▁100)	-10.5897
::	-10.5901
▁key	-10.5989
▁ty	-10.5997
▁'\0'	-10.6063
-1)	-10.6063
LU	-10.6067
▁""0	-10.6069
▁'#')	-10.608
▁gets	-10.6082
▁match	-10.6087
▁fathercnt	-10.609
LD	-10.61
▁puts	-10.6102
▁1][1]	-10.6103
▁brr	-10.6103
RD	-10.611
[2][0]	-10.6117
▁No	-10.6136
4,	-10.6136
sqrt	-10.6137
▁file	-10.6164
▁su	-10.6165
▁9)	-10.6192
▁through	-10.6193
▁"""";	-10.6227
▁red	-10.6227
▁se	-10.6231
]--;	-10.6247
|)	-10.6268
asya	-10.6275
▁ff	-10.6286
▁tem	-10.6309
▁unique	-10.6332
▁kk	-10.6335
▁'.';	-10.6352
▁moves	-10.6359
TEAM	-10.6364
▁Yes	-10.6383
▁arg	-10.6409
▁hate	-10.6423
▁hash	-10.645
ending	-10.6482
rat	-10.6483
dfs	-10.6484
▁ele	-10.6554
or	-10.6579
▁ctr	-10.6591
2);	-10.6593
man	-10.6618
▁setting	-10.6622
▁until	-10.6657
(-1.0)	-10.6658
▁hitung	-10.6659
▁three	-10.6661
-9	-10.6662
▁lol	-10.669
▁'8')	-10.6696
▁after	-10.6775
▁mul	-10.6782
▁distance	-10.679
[++	-10.6798
mark	-10.6801
blue	-10.6839
[100],	-10.6884
▁keyboard	-10.6895
▁nothing	-10.6895
▁precision	-10.6933
RE	-10.6949
run	-10.6961
vec	-10.6966
▁3"	-10.6974
IM	-10.7017
[3])	-10.7025
▁has	-10.7027
▁TESTS	-10.7033
AT	-10.7035
▁var	-10.7073
▁fun	-10.708
▁WI	-10.7089
▁address	-10.7141
keep	-10.7141
▁200005	-10.7143
▁F	-10.717
pow	-10.7178
▁inv	-10.7201
right	-10.7204
▁MIN	-10.7215
aren	-10.727
▁calc	-10.7289
▁ll	-10.7302
▁en	-10.7326
output	-10.7332
display	-10.7336
▁comp	-10.7351
0;	-10.7377
▁reference	-10.7393
▁content	-10.7394
[100005]	-10.7411
▁'1';	-10.7431
▁64	-10.7441
Power	-10.7448
child	-10.7462
Mahmoud	-10.7462
woman	-10.7462
Ehab	-10.7462
▁list	-10.7484
▁""?""	-10.7507
▁float	-10.7512
oward	-10.752
▁vectors	-10.7522
[2][2]	-10.7524
[10]	-10.753
▁dep	-10.754
▁'\0';	-10.7542
▁compare	-10.7553
Reality	-10.7585
Space	-10.7585
Soul	-10.7585
Mind	-10.7588
head	-10.7593
chest	-10.7594
▁998244353	-10.763
▁sieve	-10.7645
come	-10.7656
▁board	-10.7665
▁100010	-10.7667
▁edges	-10.7683
▁'7'	-10.7686
fa	-10.7708
▁half	-10.7766
▁Friendship	-10.7781
▁guy	-10.7782
▁'['	-10.7792
▁tolower	-10.7825
▁numbers	-10.7832
▁green	-10.7835
▁ed	-10.7881
▁priority	-10.7919
1--;	-10.7929
E	-10.7966
▁qr	-10.7971
.............|	-10.8004
▁(!(	-10.8019
▁ant	-10.8034
[110]	-10.8043
▁':'	-10.8086
up	-10.8103
op	-10.8112
▁cou	-10.8127
▁'4')	-10.8129
▁year	-10.8155
▁round	-10.8188
▁""#.""	-10.8191
""}	-10.82
▁(180	-10.8205
▁pref	-10.821
▁U	-10.8226
▁med	-10.8242
▁counting	-10.8257
green	-10.827
[5];	-10.8271
▁'7')	-10.8294
[101],	-10.8326
▁putchar	-10.8328
▁prog	-10.8336
▁oo	-10.8374
biceps	-10.8411
[1000],	-10.8446
▁lim	-10.8485
▁1.0	-10.8507
▁ta	-10.8545
exclusive	-10.8554
']++;	-10.8581
▁infinite	-10.861
[1001]	-10.8616
▁2005	-10.8621
▁columns	-10.8621
ara	-10.8644
▁1000000009	-10.8657
xx	-10.87
▁ql	-10.8733
▁""#"";	-10.8757
▁starty	-10.8759
▁15)	-10.8763
▁spf	-10.8777
[9]	-10.8785
▁32	-10.8785
[26]	-10.8804
color	-10.881
Black	-10.8814
White	-10.8814
[1005]	-10.8817
[3],	-10.8835
2))	-10.8845
erminate	-10.8858
minn	-10.8865
Color	-10.8902
▁goal	-10.8904
▁matches	-10.8907
▁booleans	-10.8935
▁'<'	-10.8958
Chris	-10.8994
Mishka	-10.8994
queue	-10.8995
▁month	-10.9027
▁Input	-10.9052
▁curlower	-10.9053
▁does	-10.9056
▁calling	-10.9106
resize	-10.9144
show	-10.9147
▁':')	-10.9162
▁love	-10.9204
▁rlmoves	-10.9205
▁""."";	-10.9208
▁winner	-10.922
▁cot	-10.924
▁psum	-10.925
▁180	-10.925
-1,	-10.9254
Penny	-10.9296
Danik	-10.9299
Anton	-10.9299
orange	-10.9299
▁rat	-10.9305
▁game	-10.933
▁man	-10.9333
▁Set	-10.9366
▁""2""	-10.9367
[2],	-10.9388
win	-10.9426
▁itr	-10.9428
Leonard	-10.9452
Rajesh	-10.9452
Sheldon	-10.9452
▁case	-10.9478
and	-10.9493
▁exist	-10.9495
▁sumb	-10.9508
▁GCD	-10.9513
▁extra	-10.9518
▁side	-10.9528
▁flg	-10.9529
▁MX	-10.9531
▁mymap	-10.9541
[100000]	-10.9555
▁60;	-10.9571
▁pp	-10.9577
▁memset	-10.9581
▁front	-10.9603
aux	-10.9618
#.#.#.#.#.|	-10.9633
(-1);	-10.9651
▁500	-10.9663
▁(0);	-10.9666
of	-10.9667
▁Count	-10.9685
▁turn	-10.9693
▁cap	-10.9697
▁log	-10.9717
▁yes	-10.9727
(3	-10.9728
▁doubles	-10.9752
us	-10.9756
▁maxm	-10.9762
:	-10.9771
Incorrect	-10.9775
#.#.#.#.#.|.|)""	-10.9775
maxi	-10.9784
2=	-10.9792
cw	-10.9792
curr	-10.9802
tot	-10.9819
▁goto	-10.9835
▁big	-10.9855
pre	-10.9884
▁men	-10.9907
▁tm	-10.9937
Misha	-10.9939
yellow	-10.9939
▁txt	-10.994
▁28	-10.995
[1001];	-10.9977
▁16	-10.9996
▁Ans	-11.0037
▁rl	-11.0056
-1][	-11.0101
purple	-11.0104
Tie	-11.0107
tc	-11.0107
▁contain	-11.013
▁write	-11.013
▁18	-11.0185
▁cond	-11.019
▁mov	-11.0235
value	-11.026
position	-11.0277
▁cy	-11.0316
2[1])	-11.0322
mini	-11.0332
▁1]))	-11.0351
▁rec	-11.0352
▁2*	-11.036
erate	-11.0399
prev	-11.0412
▁iter	-11.0449
ma	-11.0475
▁rr	-11.0496
▁shu	-11.051
NG	-11.0522
▁lessons	-11.0524
▁alpha	-11.0532
▁tam	-11.0547
▁120	-11.0628
ccw	-11.0636
▁2])	-11.0643
▁gr	-11.0663
▁way	-11.067
▁same	-11.0672
▁md	-11.0682
▁nCr	-11.0687
▁cycle	-11.0687
▁(360	-11.0709
precision	-11.0753
Dodecahedron	-11.0778
Tetrahedron	-11.0778
Octahedron	-11.0779
Cube	-11.0779
captain	-11.0803
▁counts	-11.0839
▁weak	-11.0859
▁diag	-11.0875
▁20)	-11.0878
');	-11.0879
▁status	-11.0879
▁coins	-11.0882
▁fix	-11.0917
▁tab	-11.0918
▁dat	-11.0919
▁cup	-11.0932
▁open	-11.0934
▁asd	-11.0935
('	-11.0945
▁le	-11.0951
▁par	-11.0971
▁),	-11.1013
▁11;	-11.1017
step	-11.1035
▁menor	-11.1044
▁stringstream	-11.1055
oke	-11.1077
▁!(	-11.1083
.""	-11.1135
▁letters	-11.1144
▁startx	-11.1181
▁lenb	-11.1182
▁sup	-11.1211
▁edge	-11.1219
▁proceed	-11.1226
▁""5""	-11.1251
▁pop	-11.1274
▁998244353;	-11.1306
float	-11.1339
▁200000	-11.1342
▁toupper	-11.1349
false	-11.1359
base	-11.136
[105]	-11.1372
[0]);	-11.1373
▁contador	-11.1418
▁tim	-11.142
▁cell	-11.1425
▁dig	-11.1432
▁240	-11.1433
▁'0');	-11.1451
fabs	-11.1477
OT	-11.1505
18;	-11.1517
▁bl	-11.1524
cast	-11.1552
append	-11.1555
▁place	-11.1571
▁Solve	-11.1607
▁32;	-11.1617
mber	-11.1617
▁graph	-11.1622
RA	-11.1668
▁'>'	-11.1712
▁')')	-11.1715
▁sq	-11.1716
-2]	-11.1721
▁1000005	-11.1761
▁lst	-11.1765
one	-11.1787
home	-11.1787
(10	-11.1791
▁stdin	-11.1803
▁86400	-11.1822
▁')'	-11.1858
▁args	-11.1862
log	-11.1868
▁1]);	-11.1876
▁""4""	-11.1892
][1])	-11.1924
counter	-11.1932
Equal	-11.1944
solve	-11.1948
#.#.#.#.#.|.|""	-11.1954
▁pw	-11.1955
la	-11.1984
▁modul	-11.2
▁was	-11.2017
▁sumr	-11.208
col	-11.2103
▁bits	-11.2105
Icosahedron	-11.2109
[3][3];	-11.2117
▁2}	-11.2124
signed	-11.216
▁First	-11.2201
▁uneven	-11.2207
▁reduce	-11.2208
▁matrix	-11.2208
▁rounded	-11.2212
▁seq	-11.223
▁rta	-11.2239
▁lucky	-11.2239
points	-11.2255
▁setprecision	-11.2265
[1010]	-11.2307
low	-11.2313
▁100000;	-11.2348
▁prices	-11.2349
till	-11.2358
▁final	-11.2371
rem	-11.2374
▁96	-11.2387
0)	-11.2388
▁""-""	-11.2415
zxcvbnm	-11.2416
sdfghjkl	-11.2416
▁numOps	-11.2418
strcpy	-11.242
_1	-11.242
=3	-11.2423
▁req	-11.2431
[200]	-11.2433
▁udmoves	-11.244
▁bfs	-11.2442
▁squared	-11.245
▁1000000007)	-11.2453
▁200001	-11.248
▁levels	-11.2488
2[0])	-11.2508
data	-11.2517
▁12)	-11.2531
▁100,	-11.2546
+1][	-11.2566
Masha	-11.2568
Dasha	-11.2568
team	-11.2572
freopen	-11.2572
found	-11.2573
[11]	-11.2605
▁250	-11.2607
▁large	-11.2624
lo	-11.2636
▁'?')	-11.2638
▁act	-11.2651
▁reset	-11.2654
▁del	-11.2657
▁votes	-11.2658
dif	-11.2669
10	-11.2673
▁dim	-11.2677
ceil	-11.2679
▁reg	-11.2685
▁tx	-11.2694
ly	-11.2706
▁30;	-11.2759
/10	-11.2765
▁{};	-11.2771
next	-11.279
▁51	-11.2792
▁light	-11.282
qwertyuiop	-11.2846
▁respectively	-11.2846
▁more	-11.2847
▁divisor	-11.285
▁state	-11.2857
▁vs	-11.2862
Max	-11.2867
▁rep	-11.2872
▁gl	-11.2883
To	-11.2889
▁players	-11.2897
▁5];	-11.2899
▁10);	-11.2904
▁sm	-11.2929
[105][105];	-11.2962
▁""+""	-11.2976
▁DOWN	-11.2995
▁UP	-11.2996
exp	-11.3
Alice	-11.301
inline	-11.3015
UR	-11.3029
[10],	-11.3047
▁ver	-11.306
▁star	-11.3062
asilisa	-11.3068
▁positive	-11.3069
▁least	-11.3069
▁Second	-11.3073
-""	-11.3083
act	-11.3084
▁48;	-11.311
▁lca	-11.3112
▁home	-11.3137
[101][101];	-11.3157
▁maxy	-11.3159
[100001];	-11.3192
▁sh	-11.322
▁501	-11.323
TIE	-11.3236
Bob	-11.3237
whichPosn	-11.3239
root	-11.324
visited	-11.3243
reg	-11.3263
et	-11.3276
▁increas	-11.328
anako	-11.3283
▁multiplie	-11.3295
optimization	-11.3295
▁Rozdil	-11.3295
▁limit	-11.3298
▁clock	-11.3303
▁save	-11.3312
▁pot	-11.3314
▁poly	-11.3326
▁27	-11.3329
<=	-11.3348
▁pl	-11.335
[100000];	-11.3352
▁fy	-11.3377
▁head	-11.3396
▁fx	-11.3439
-2	-11.344
[0]++;	-11.3452
▁2000	-11.3456
▁10]	-11.3457
compare	-11.3472
kol	-11.3473
▁work	-11.3493
▁weight	-11.35
▁put	-11.3502
▁steps	-11.3519
▁solution	-11.3529
▁toggle	-11.3531
▁oven	-11.3539
▁speed	-11.3545
▁MN	-11.3573
>0	-11.3578
][1];	-11.3589
co	-11.3602
]])	-11.3611
[100001]	-11.363
▁lena	-11.363
dest	-11.3639
▁35	-11.3662
word	-11.3675
ta	-11.3687
subtractions	-11.3687
contest	-11.3707
[200];	-11.3731
▁factor	-11.3739
ary	-11.3739
bound	-11.3766
Slava	-11.3766
▁falsy	-11.3766
▁whichPosn	-11.3826
+1)	-11.3837
▁captain	-11.3842
▁10000000	-11.3846
▁sc	-11.385
▁ones	-11.3855
▁220	-11.3913
_0	-11.3916
▁clo	-11.3949
undefined	-11.395
▁tar	-11.3956
that	-11.3959
dx	-11.3965
▁65	-11.3965
alue	-11.3979
[10000]	-11.3979
esp	-11.398
not	-11.3988
▁buf	-11.4006
▁""1/2""	-11.4028
▁money	-11.4042
mm	-11.4075
▁xay	-11.4088
9,	-11.4126
▁13)	-11.4149
1][	-11.4152
[100]	-11.4173
day	-11.4179
Danil	-11.4187
Nikita	-11.4187
Olya	-11.4187
Ann	-11.4192
unique	-11.4204
▁1].	-11.4216
▁nex	-11.4226
▁dg	-11.4229
rest	-11.4233
DL	-11.4242
▁decreasing	-11.426
▁CUR	-11.4262
ARD	-11.4267
▁Pic	-11.4269
▁remaining	-11.427
▁participants	-11.4271
▁chess	-11.4277
▁jum	-11.4287
(-1)	-11.4305
)((	-11.4329
dg	-11.4351
[100010]	-11.4355
>())	-11.4362
-8	-11.4399
dist	-11.4435
Ciel	-11.4453
ULDR	-11.4456
▁area	-11.4481
ct	-11.4482
▁qq	-11.4489
▁every	-11.4516
▁nonzero	-11.4516
▁width	-11.4516
▁LCM	-11.4517
▁chang	-11.4522
▁201	-11.4524
▁""5/6""	-11.4536
▁""1/3""	-11.4537
▁""2/3""	-11.4537
▁team	-11.4548
▁exe	-11.457
]]]	-11.4619
▁cp	-11.4656
▁answ	-11.4656
+2]	-11.4665
▁dos	-11.4676
[101]	-11.4681
▁cop	-11.472
ignore	-11.472
UL	-11.473
▁names	-11.4732
%	-11.4739
1.0	-11.4743
▁rotate	-11.4745
nt	-11.475
▁words	-11.4765
(1);	-11.4775
▁mode	-11.478
▁bottles	-11.4785
▁bills	-11.4798
▁102	-11.4801
▁salt	-11.4804
▁fff	-11.4823
ome	-11.4853
▁gg	-11.4862
▁5001	-11.4868
▁answers	-11.4874
▁123	-11.4884
[30]	-11.491
▁dr	-11.4929
▁'[')	-11.4931
▁miny	-11.4931
▁its	-11.4936
▁cntr	-11.4951
▁10005	-11.4956
▁sumz	-11.4957
[3][3]	-11.4962
isdigit	-11.4993
upper	-11.4995
need	-11.4996
▁dd	-11.4999
hash	-11.5009
▁amount	-11.5018
*(	-11.505
▁Need	-11.5051
▁largest	-11.5052
▁execute	-11.5052
▁loss	-11.5052
▁hasil	-11.5057
▁matriz	-11.5063
▁bob	-11.5065
▁summ	-11.5093
[30];	-11.51
▁contains	-11.5107
inp	-11.5113
[200005];	-11.5198
score	-11.5207
tt	-11.5212
▁zz	-11.5233
owel	-11.5251
[0].	-11.5264
2--;	-11.5266
[10000];	-11.5294
+2	-11.5318
▁16)	-11.532
▁factorial	-11.5328
▁bottom	-11.5328
.#.#.#.#.#.#.|.|	-11.533
DR	-11.5344
1))	-11.5359
▁1000000;	-11.5366
>=	-11.5378
▁done	-11.5383
▁48)	-11.5387
▁""|#.	-11.542
>(	-11.5422
to	-11.5437
▁36	-11.5439
▁pro	-11.5459
▁el	-11.5461
par	-11.5462
▁(7	-11.5511
▁sp	-11.5519
▁29	-11.5521
▁""|""	-11.5528
reate	-11.5534
,./""	-11.5545
2-	-11.5552
isprime	-11.5561
▁2001	-11.5588
▁command	-11.5597
▁stone	-11.56
▁hav	-11.5605
▁other	-11.5613
▁Output	-11.5613
▁lowercase	-11.5613
▁method	-11.5613
▁que	-11.5618
▁Cnt	-11.5619
▁static	-11.5619
▁password	-11.5621
▁ope	-11.5627
▁record	-11.5627
▁deg	-11.5628
▁vest	-11.563
▁present	-11.5632
▁Sum	-11.5636
▁cards	-11.5641
▁ats	-11.5658
▁old	-11.5663
▁he	-11.5671
]-	-11.5706
............|""	-11.5711
▁92	-11.5714
digit	-11.5718
▁Chris	-11.5724
▁Mishka	-11.5724
[1000]	-11.5731
▁xmax	-11.5737
▁105;	-11.5741
▁endy	-11.5746
line	-11.5762
▁An	-11.577
▁999999	-11.5782
▁'/'	-11.5798
▁indx	-11.581
div	-11.5817
▁tri	-11.5818
cek	-11.5854
[5][5];	-11.5855
open	-11.5868
▁code	-11.587
▁part	-11.5877
▁jump	-11.5882
increase	-11.5883
▁OO	-11.5885
the	-11.5888
▁decimal	-11.5897
▁player	-11.59
▁distanc	-11.5901
Bear	-11.5907
Elephant	-11.5907
▁jumlah	-11.5907
▁maps	-11.5909
▁qtb	-11.591
▁previous	-11.5912
▁interval	-11.5917
▁mishka	-11.5918
▁10000;	-11.5929
▁short	-11.5942
▁loc	-11.5944
▁200010	-11.5969
▁cad	-11.5991
on	-11.6019
▁inch	-11.6029
oo	-11.6056
▁9,	-11.6074
▁sw	-11.6106
ign	-11.6112
▁pairs	-11.612
[60]	-11.612
absolute	-11.6155
fffffff	-11.6176
▁mxv	-11.6176
▁sumc	-11.6204
aeiou	-11.621
▁label	-11.621
▁""***""	-11.6211
▁DFS	-11.6211
▁convert	-11.6213
▁leaf	-11.6215
▁des	-11.6217
▁parent	-11.6222
▁crew	-11.6224
▁tree	-11.6225
new	-11.6234
▁cmd	-11.6243
▁13	-11.6257
[6];	-11.6275
▁122	-11.6276
sz	-11.6316
[1].	-11.6339
[55];	-11.6375
▁""<""	-11.6386
▁"">""	-11.6394
list	-11.6405
▁ep	-11.6411
▁1));	-11.6415
▁11)	-11.6419
▁1000000009;	-11.6424
▁22)	-11.6427
▁24	-11.6442
letter	-11.6447
▁qua	-11.6454
▁mmax	-11.6456
impossible	-11.6457
EASY	-11.6462
stream	-11.6491
▁floor	-11.6498
▁endx	-11.65
▁program	-11.6523
▁fastIo	-11.6523
oyomi	-11.6523
▁getInt	-11.6523
▁inches	-11.6526
▁Blue	-11.6533
▁memo	-11.6536
▁ysum	-11.6537
▁carry	-11.6539
()))	-11.6542
▁poww	-11.6548
▁5000	-11.6553
▁maxN	-11.6559
4;	-11.6574
(10)	-11.6592
0"	-11.6618
▁wp	-11.6627
1+	-11.6634
▁dot	-11.6644
▁60)	-11.6646
▁cha	-11.6687
▁48);	-11.6693
▁(4	-11.6702
test	-11.6736
▁bigge	-11.6753
-7	-11.678
gap	-11.679
▁resta	-11.679
best	-11.6797
lol	-11.6801
ash	-11.6817
▁rot	-11.6824
▁hang	-11.6842
▁spec	-11.6843
▁given	-11.6845
▁'|'	-11.6847
▁pole	-11.6854
▁plen	-11.6858
▁active	-11.6861
▁box	-11.6869
▁have	-11.687
▁buff	-11.6883
▁soroban	-11.6884
2[""	-11.6891
▁depth	-11.6899
▁'5')	-11.6935
▁""1/1""	-11.6936
▁pv	-11.6938
[1000000];	-11.6942
▁take	-11.6949
▁imax	-11.6964
▁alt	-11.6973
[12]	-11.6985
vowel	-11.6988
square	-11.6988
▁maxs	-11.7
ve	-11.701
halfplus	-11.7109
card	-11.7125
freq	-11.7126
yes	-11.7137
▁divis	-11.7149
▁300	-11.7151
▁1]++;	-11.7166
ios	-11.7171
Alien	-11.7179
hello	-11.7179
permutation	-11.7179
▁invert	-11.7179
▁chris	-11.7182
▁banyak	-11.7182
▁coord	-11.7182
▁person	-11.7182
▁raw	-11.7184
▁bisa	-11.7189
ULL	-11.719
▁posy	-11.7194
▁loct	-11.7199
▁frest	-11.7208
▁cakes	-11.7209
9)	-11.7229
▁15;	-11.7231
4"	-11.7237
▁stones	-11.7239
▁vet	-11.7247
▁3])	-11.7248
inf	-11.7261
▁games	-11.7261
pri	-11.7282
▁sumy	-11.7313
yy	-11.7319
▁beat	-11.7335
1[""	-11.7358
[1000005];	-11.7365
tp	-11.737
level	-11.7404
[20];	-11.7406
ust	-11.7452
ajout	-11.7465
half	-11.7468
▁lsum	-11.7471
▁acum	-11.7504
▁sumA	-11.7515
▁infinitely	-11.7524
]=1	-11.7531
▁palindrome	-11.7544
setf	-11.7545
▁black	-11.7551
▁lef	-11.7551
▁qpow	-11.7555
▁E	-11.7572
▁22;	-11.7575
▁den	-11.7592
ith	-11.7602
[51]	-11.7623
re	-11.763
▁bak	-11.7645
▁tstep	-11.7654
▁400	-11.7654
▁ymin	-11.7659
▁sir	-11.7719
▁func	-11.7722
▁ee	-11.773
▁pri	-11.7774
npos	-11.7774
▁'}'	-11.7778
▁100001;	-11.7782
▁getline	-11.7793
Impossible	-11.7821
colom	-11.7822
lucky	-11.7824
depth	-11.7825
visit	-11.7831
layer	-11.784
▁prealoc	-11.7881
▁tabla	-11.7881
▁bigmod	-11.7881
▁ANS	-11.7884
▁numOf	-11.7884
▁lzl	-11.7884
▁choose	-11.7886
▁difference	-11.7886
▁biao	-11.7888
▁contiguous	-11.789
▁computer	-11.7896
▁most	-11.7897
▁hotels	-11.7898
*2	-11.7901
[5][5]	-11.7901
1-	-11.7901
pp	-11.7902
▁liter	-11.7902
▁','	-11.7904
▁gesture	-11.7905
▁sec	-11.7908
▁card	-11.7909
((3	-11.7916
▁siz	-11.7922
▁bao	-11.7929
▁prf	-11.7935
▁mask	-11.7945
▁150	-11.7959
▁lie	-11.7975
[55][55];	-11.8018
▁bal	-11.8034
▁getint	-11.8041
[1010];	-11.8062
▁20000	-11.8097
gets	-11.8117
sub	-11.8151
[50]	-11.8154
cont	-11.8156
▁'5'	-11.8157
dir	-11.8164
mat	-11.8176
mxm	-11.8177
▁LEFT	-11.8184
dep	-11.8196
▁err	-11.8198
[2005];	-11.8204
#.#.#.#.|	-11.8209
zhuangtai	-11.8251
▁condition	-11.8252
▁danik	-11.8252
▁slogan	-11.8252
▁nor	-11.8254
▁location	-11.8254
▁biaoji	-11.8262
▁finall	-11.8268
▁misha	-11.8269
cc	-11.8275
▁kanan	-11.8276
▁node	-11.8283
▁search	-11.8285
▁qta	-11.829
▁tmo	-11.8291
▁marks	-11.8321
▁wt	-11.8326
[100000	-11.8383
][3]	-11.8413
▁pe	-11.8418
▁TEAM	-11.8442
[100][100];	-11.8446
en	-11.8447
[{	-11.8447
post	-11.8453
▁dest	-11.8461
▁Correct	-11.8468
▁""3""	-11.8471
▁205	-11.8471
▁acc	-11.8472
+1,	-11.8475
ac	-11.8495
▁bus	-11.8509
▁Time	-11.8518
▁pd	-11.8523
▁'!'	-11.8532
▁ccw	-11.8542
edge	-11.8545
][2];	-11.8548
▁th	-11.8554
▁suff	-11.8566
▁tu	-11.8569
6;	-11.8571
turn	-11.8575
fixed	-11.858
judge	-11.858
mymap	-11.8581
used	-11.8591
moves	-11.8594
▁""7""	-11.8594
▁es	-11.8609
strlen	-11.8623
▁sumB	-11.8636
3372036854775807	-11.8636
▁2147483647	-11.8636
▁voters	-11.8636
▁query	-11.8636
▁tr	-11.8636
9+7	-11.8636
▁po	-11.8637
▁deq	-11.864
▁workTime	-11.8642
▁Map	-11.8645
▁towels	-11.8646
▁soldier	-11.8648
▁height	-11.8651
▁cpy	-11.8663
▁cel	-11.8668
▁1.0)	-11.8685
▁200;	-11.8692
[50];	-11.8738
▁600	-11.8739
▁orange	-11.8748
▁ways	-11.8752
▁dc	-11.8755
▁To	-11.8757
▁lc	-11.877
[26];	-11.8774
[1000	-11.878
▁3*	-11.881
.|	-11.8815
▁ymax	-11.882
-6	-11.8845
▁128	-11.8859
ex	-11.8862
<0	-11.8873
▁maxlen	-11.8884
[10][10];	-11.8893
▁newsum	-11.8895
▁1005;	-11.8901
price	-11.8901
rbegin	-11.8913
olume	-11.893
▁3.14159	-11.8934
▁non	-11.8935
dy	-11.8947
[100010];	-11.8947
▁send	-11.8959
▁maxa	-11.8986
sign	-11.8997
▁ev	-11.901
▁ihash	-11.9016
LO	-11.9022
▁negative	-11.9036
▁""25""	-11.9036
▁Mod	-11.9036
▁decrypt	-11.9037
▁quotient	-11.9037
▁smaller	-11.9037
▁powmod	-11.904
▁people	-11.9042
▁linha	-11.9042
▁palin	-11.9043
▁four	-11.9044
▁31}	-11.9048
▁grest	-11.905
▁pod	-11.9052
▁larger	-11.9057
▁Cmp	-11.9062
marks	-11.9083
▁""1/6""	-11.9105
▁vowel	-11.9107
▁tims	-11.9111
▁kkk	-11.9126
▁1][2]	-11.9132
adj	-11.9136
▁dsa	-11.9136
=-1	-11.9147
err	-11.9159
▁xmin	-11.9167
▁prep	-11.9168
▁prevc	-11.9178
▁Anton	-11.9189
▁ios	-11.919
▁123;	-11.923
.#.#.#.#.#.#.#.|	-11.9232
▁'-';	-11.9245
▁isdigit	-11.9258
▁10];	-11.9261
[55]	-11.9262
▁numb	-11.9274
▁1001;	-11.9316
▁'<')	-11.9321
/5	-11.9339
iterat	-11.9358
5;	-11.9364
ped	-11.9366
▁mmin	-11.9377
▁(0)	-11.9379
poly	-11.9396
isPrime	-11.9397
current	-11.9397
ector	-11.9422
tstep	-11.9423
▁maxl	-11.9442
▁page	-11.9443
joy	-11.9446
numberOfElements	-11.9452
▁jumlahgenap	-11.9452
▁pause	-11.9452
▁geek	-11.9455
▁Alex	-11.9461
▁1},	-11.9462
eros	-11.9463
▁1000001	-11.9463
▁modexp	-11.9469
▁timr	-11.9471
▁ctx	-11.9471
▁pwr	-11.9475
▁90	-11.9481
▁per	-11.9483
[4])	-11.9499
[1]++;	-11.9501
▁seen	-11.9505
dot	-11.9518
▁ref	-11.9519
▁angle	-11.9522
[102];	-11.9527
▁doit	-11.9558
▁pairt	-11.9564
[60];	-11.958
▁mo	-11.959
tr	-11.9611
▁9999999	-11.9613
▁Danik	-11.9613
▁5005	-11.9635
▁LL	-11.9644
▁Ehab	-11.9646
▁Mahmoud	-11.9646
▁woman	-11.9646
▁divs	-11.9652
▁tdiff	-11.9652
)*	-11.9666
primes	-11.9672
▁25)	-11.968
[10005];	-11.9706
▁nadj	-11.9707
valid	-11.9724
▁47	-11.9729
▁26)	-11.9772
▁sss	-11.9808
()])	-11.9821
▁(10	-11.9823
cup	-11.9826
money	-11.9831
exist	-11.9831
TESTS	-11.9831
▁yf	-11.9832
▁'2'	-11.984
▁(*	-11.9844
▁counta	-11.9853
(0	-11.9859
▁column	-11.987
▁xor	-11.9872
▁hor	-11.9883
▁prohibited	-11.9887
▁wait	-11.9888
[27]	-11.989
▁tempm	-11.989
▁army	-11.9896
▁binary	-11.9897
▁text	-11.99
▁palabra	-11.9904
▁fail	-11.9908
▁discounts	-11.991
▁foo	-11.9912
▁atoi	-11.9915
vv	-11.9919
▁10010	-11.9922
▁cols	-11.9923
▁fir	-11.9925
]+	-11.9926
▁ten	-11.9927
▁isgro	-11.9927
▁maxv	-11.9932
+1]-	-11.9951
▁def	-11.9955
[15]	-11.9969
oy	-11.9973
▁(-1)	-12.0004
▁vasya	-12.0016
▁kq	-12.0021
▁yellow	-12.0045
▁cant	-12.006
▁maxcnt	-12.0071
▁minP	-12.0085
#.#.#.#.#.|.|)	-12.0143
▁60,	-12.0146
[2][	-12.016
▁hb	-12.0162
-|""	-12.0165
▁""=""	-12.0167
▁97)	-12.0168
▁2];	-12.0174
counts	-12.0223
100,	-12.0238
dem	-12.0247
father	-12.0269
▁inter	-12.0271
▁posx	-12.0278
store	-12.0286
INT	-12.0286
minimum	-12.0287
big	-12.0293
▁alph	-12.0303
bak	-12.0304
getchar	-12.0311
ver	-12.0317
med	-12.0323
▁drink	-12.0326
▁small	-12.0336
▁desk	-12.0339
transform	-12.0342
▁jarak	-12.0342
stripe	-12.0342
+1)/2	-12.0343
▁nearest	-12.0343
▁comparator	-12.0343
▁End	-12.0345
▁smL	-12.0348
▁satu	-12.0348
▁enemy	-12.0351
▁dua	-12.0352
▁smR	-12.0352
▁numedges	-12.0353
▁sisa	-12.0356
▁505	-12.0356
▁anton	-12.0357
[11];	-12.0358
[1000][1000]	-12.0358
▁criba	-12.0364
▁OUTPUT	-12.0367
▁maxSize	-12.0369
▁possible	-12.0373
▁primos	-12.0373
▁ud	-12.0374
▁numver	-12.0374
▁rad	-12.0384
▁(26	-12.0388
▁nuts	-12.0397
▁If	-12.0408
▁opt	-12.0464
▁Incorrect	-12.0509
▁may	-12.0576
▁cw	-12.0585
▁0.5	-12.0587
("""")	-12.059
▁7-	-12.0593
▁1000010	-12.0595
wt	-12.0618
[1][2])	-12.0621
▁lat	-12.0622
▁digits	-12.0642
ult	-12.0649
nums	-12.0654
Found	-12.0657
Au	-12.0667
fb	-12.0668
iter	-12.067
players	-12.0686
▁LO	-12.0696
(1)	-12.0708
answer	-12.0717
Min	-12.0733
days	-12.0751
soroban	-12.0761
short	-12.0761
udmoves	-12.0762
86400	-12.0762
high	-12.0762
type	-12.0762
from	-12.0764
match	-12.0765
▁minm	-12.0767
]-'0'	-12.0778
'))	-12.0804
|""	-12.0804
[1000006]	-12.0808
es	-12.0811
'])	-12.0814
▁shengyu	-12.0818
▁Next	-12.0822
[0]--;	-12.0824
showpoint	-12.0824
()));	-12.0826
fingers	-12.0827
▁oil	-12.0827
▁smallest	-12.0828
▁occ	-12.0829
▁tag	-12.0833
▁only	-12.0834
{	-12.0845
hh	-12.0845
▁INFF	-12.0845
▁INPUT	-12.0847
▁qmarks	-12.0852
▁lens	-12.0866
▁21)	-12.087
ant	-12.0873
mas	-12.089
▁pointers	-12.0897
▁abc	-12.0921
Arr	-12.0929
][0];	-12.0937
▁100100	-12.0938
▁Minb	-12.0941
▁180)	-12.0946
▁freopen	-12.0954
▁nxt	-12.0957
▁Misha	-12.0991
[110][110];	-12.1004
][0])	-12.101
all	-12.1071
ong	-12.1073
cr	-12.1082
odd	-12.1088
▁nowp	-12.1116
'}	-12.1131
[200000	-12.1133
fl	-12.116
app	-12.1163
▁maxr	-12.1169
▁xxx	-12.1176
▁pb	-12.1177
#.#.#.#.#.|.|	-12.1178
zero	-12.1206
▁fg	-12.1247
Bulbasaur	-12.126
INF	-12.1261
board	-12.1262
lessons	-12.1262
status	-12.1262
grid	-12.1262
decrease	-12.1263
key	-12.1273
▁500;	-12.1289
pr	-12.1294
▁remain	-12.1307
▁999	-12.1314
▁process	-12.1318
▁fuck	-12.1318
▁inicial	-12.1318
▁jumlahganjil	-12.1318
▁qClose	-12.1318
▁third	-12.1318
▁uppercase	-12.1318
▁perColor	-12.1318
▁differ	-12.1319
▁LINF	-12.132
▁walk	-12.1323
▁buffer	-12.1323
▁numero	-12.1323
▁beginat	-12.1325
▁suck	-12.1325
▁tank	-12.1326
▁friends	-12.1329
▁deque	-12.1331
[5])	-12.1333
▁gc	-12.1333
▁**	-12.1338
▁sta	-12.1339
▁Way	-12.1341
▁sag	-12.1351
▁slot	-12.1355
▁chk	-12.1357
▁sheets	-12.1358
▁305	-12.1361
▁seg	-12.1363
00	-12.137
▁MAXT	-12.1372
)))	-12.138
▁inve	-12.1382
▁999999999	-12.1387
▁fpow	-12.1387
[1][1])	-12.1394
▁commands	-12.1396
▁suml	-12.141
▁17	-12.1412
▁cups	-12.1425
ck	-12.143
▁fac	-12.1443
▁ppow	-12.1443
▁'!')	-12.1455
[10010];	-12.1461
▁zsum	-12.1468
▁5);	-12.1498
▁pen	-12.1501
▁flagA	-12.1512
▁1][2])	-12.1538
▁31;	-12.1546
flog	-12.1547
▁fla	-12.1547
way	-12.1555
3[0]	-12.1555
[200005]	-12.1558
▁rc	-12.1564
▁ust	-12.1574
(8	-12.1605
▁122)	-12.1613
▁slen	-12.1624
[201]	-12.1625
▁nan	-12.1627
[120];	-12.1639
32	-12.1663
▁pas	-12.1675
[100	-12.1677
▁1000000000;	-12.1711
rend	-12.1734
over	-12.1738
▁14	-12.1747
▁97;	-12.1748
▁fans	-12.1764
▁(8	-12.1767
▁'3'	-12.1775
▁'6'	-12.178
isalpha	-12.1785
Number	-12.1786
fill	-12.1788
▁40	-12.1788
maximum	-12.1789
winner	-12.179
amt	-12.1797
(360	-12.1799
▁modd	-12.1812
▁gla	-12.1817
asd	-12.1822
▁follow	-12.1828
(""-1"")	-12.1844
▁error	-12.1845
▁degree	-12.1846
▁blyat	-12.1846
▁horizontal	-12.1846
▁boxes	-12.1846
▁capacity	-12.1849
▁nextPrime	-12.1849
▁denominator	-12.1849
cop	-12.1852
▁forward	-12.1856
▁pangkat	-12.1856
▁111	-12.1861
▁medals	-12.1864
▁bitset	-12.1872
)/	-12.1874
▁locg	-12.1877
▁conv	-12.1882
▁210	-12.1883
]));	-12.1886
▁coty	-12.1891
▁prefix	-12.1892
▁normal	-12.1893
▁101,	-12.1897
▁SEGMENT	-12.1898
▁hangx	-12.19
▁cut	-12.1903
▁nama	-12.1904
▁neo	-12.1905
▁Bulbasaur	-12.1905
oop	-12.1912
▁factors	-12.1924
▁rprev	-12.1929
1),	-12.1931
▁maxsum	-12.1951
usa	-12.1955
▁'2')	-12.1979
▁""4	-12.198
[2].	-12.1994
▁2.0	-12.2
cto	-12.2005
▁niz	-12.2043
Ma	-12.2049
▁child	-12.2057
▁odds	-12.2072
▁nas	-12.2075
▁50;	-12.211
▁gh	-12.2116
▁kh	-12.2121
▁colors	-12.2127
▁ite	-12.2135
(0.0);	-12.2137
inv	-12.2139
itr	-12.2204
[2][1])	-12.2239
▁band	-12.2251
#.#.#.|.|)""	-12.2266
▁((1	-12.2271
▁block	-12.2301
▁app	-12.2302
(*	-12.2316
eight	-12.2322
000000005	-12.2327
_4	-12.2339
isupper	-12.234
eaten	-12.2342
beat	-12.2343
book	-12.2344
def	-12.2347
▁0.0	-12.235
chat	-12.2354
#.#.#.|.|""	-12.2358
▁caso	-12.2375
▁face	-12.2379
ways	-12.2381
Mar	-12.239
.#.#.#.#.#.#.|	-12.2393
▁fo	-12.2393
bru	-12.2397
ber	-12.2398
▁blu	-12.2399
▁mindis	-12.2399
.#.#.|	-12.24
.#.|	-12.24
.#.#.#.|	-12.24
▁brainfuck	-12.24
▁encrypt	-12.24
▁maxExcl	-12.24
erosOnes	-12.24
▁File	-12.24
▁ziro	-12.24
▁trump	-12.24
(""0"")	-12.24
▁mohi	-12.24
▁highest	-12.2402
[8][8]	-12.2403
▁merge	-12.2403
▁null	-12.2403
▁umb	-12.2404
▁200100	-12.2404
une	-12.2404
▁mius	-12.2405
minmum	-12.2407
[13]	-12.2408
▁rides	-12.2408
▁jol	-12.2409
ept	-12.241
▁prim	-12.2411
▁huruf	-12.2411
▁busca	-12.2411
▁mole	-12.2412
▁"":""	-12.2412
▁dict	-12.2412
▁foot	-12.2416
anu	-12.2417
▁welfare	-12.2418
▁limak	-12.2421
▁xorr	-12.2423
▁Start	-12.2425
▁minIncl	-12.2425
▁pntr	-12.2425
▁perm	-12.2426
▁maks	-12.2426
sir	-12.2427
▁path	-12.2431
▁']'	-12.2433
']['	-12.2443
▁Num	-12.2445
▁matching	-12.2455
▁soma	-12.2456
▁cntfloat	-12.246
▁main	-12.2465
.#.#.#.#.|	-12.2471
▁od	-12.2511
▁gov	-12.2515
▁sym	-12.2516
▁pet	-12.2519
▁csx	-12.2521
.#.#.#.#.#.|	-12.254
▁Dp	-12.2551
▁las	-12.2555
▁till	-12.2564
▁rock	-12.2577
9"	-12.2616
[105][105]	-12.2619
[0][0],	-12.2619
▁1][2]))	-12.2626
can	-12.2654
▁xsum	-12.2665
[2001];	-12.2674
[1]))	-12.2694
▁gs	-12.2719
▁lin	-12.2722
▁charnum	-12.2753
▁fp	-12.2759
startx	-12.2835
▁100002	-12.2849
maxs	-12.2851
▁'{'	-12.2877
point	-12.29
TOWARDS	-12.2925
[35]	-12.293
decimal	-12.2931
good	-12.2932
down	-12.2932
▁101;	-12.2934
▁jwb	-12.2934
dig	-12.2937
acos	-12.2944
▁choc	-12.2957
fact	-12.2962
tam	-12.2971
▁byte	-12.2973
▁righ	-12.2977
▁lines	-12.2983
▁maxc	-12.2985
Gym	-12.2988
Infinite	-12.2988
▁assert	-12.2988
▁maxCol	-12.2988
▁maxRow	-12.2988
▁minCol	-12.2988
▁minRow	-12.2988
▁olnum	-12.2988
▁indimpar	-12.2988
(""1"")	-12.2989
▁indpar	-12.2989
[15][15]	-12.299
▁lenght	-12.299
▁malloc	-12.299
▁numPairs	-12.299
▁this	-12.2991
▁era	-12.2992
▁initial	-12.2993
.0	-12.2996
odo	-12.2996
▁orgStr	-12.2997
▁posiciones	-12.2997
▁stud	-12.2999
▁lvl	-12.2999
▁findfa	-12.3
▁stck	-12.3002
▁Yellow	-12.3004
▁lft	-12.3004
▁tep	-12.3006
▁MAT	-12.301
▁midTime	-12.3012
[1001][1001]	-12.3012
▁before	-12.3013
▁candidate	-12.3014
▁tra	-12.3021
▁nike	-12.3021
▁flat	-12.3025
▁Cb	-12.3033
do	-12.3033
ada	-12.3035
▁seed	-12.3051
▁fingers	-12.3052
▁stat	-12.3057
▁jumps	-12.3061
[2005]	-12.3063
▁ptr	-12.3065
▁fim	-12.307
▁syl	-12.3072
(12)	-12.3073
[500];	-12.3078
5,	-12.3097
▁hari	-12.3097
xor	-12.3099
far	-12.3131
▁taken	-12.3133
▁90)	-12.3139
▁Bob	-12.3144
▁Alice	-12.3147
▁nam	-12.3162
▁bul	-12.3191
▁mass	-12.3192
(8);	-12.3225
[12];	-12.3238
▁sam	-12.3248
▁97]	-12.3255
ul	-12.3257
▁2));	-12.3263
▁gp	-12.3271
▁ro	-12.3274
▁hj	-12.3275
▁sorted	-12.3276
▁27)	-12.332
▁1000006	-12.3358
nd	-12.3383
▁Mina	-12.3395
'};	-12.3397
▁4)]	-12.3402
even	-12.3403
15	-12.3406
▁ry	-12.3435
▁50)	-12.3462
[11][11];	-12.3473
▁exa	-12.3477
▁maxcount	-12.3511
lose	-12.3535
▁((2	-12.3536
file	-12.3546
Finite	-12.3547
leafeon	-12.3551
prefix	-12.3552
flareon	-12.3552
sylveon	-12.3552
umbreon	-12.3552
bacterias	-12.3555
isgro	-12.3556
search	-12.3556
tolower	-12.3557
power	-12.3557
diag	-12.3557
▁1][0])	-12.3558
distance	-12.356
pass	-12.3561
gov	-12.3561
gr	-12.3568
3);	-12.3572
▁maxle	-12.3588
buil	-12.3593
▁10001	-12.3595
▁2000000000	-12.3611
getFactorization	-12.3613
▁ganjil	-12.3613
urantsLunchTimes	-12.3613
▁amazing	-12.3613
▁blanco	-12.3613
▁destination	-12.3613
▁negro	-12.3613
▁occurances	-12.3613
▁wynik	-12.3613
▁FindLen	-12.3613
▁momo	-12.3613
[10000000]	-12.3613
▁salir	-12.3613
▁tpresents	-12.3613
▁gotodown	-12.3613
▁nogover	-12.3613
[40]	-12.3613
▁lowest	-12.3613
▁-2019	-12.3614
▁tramp	-12.3614
Dec	-12.3614
▁colCount	-12.3614
▁fastio	-12.3615
hase	-12.3615
inner	-12.3615
▁previousConte	-12.3615
▁iskom	-12.3615
▁nilai	-12.3616
Count	-12.3618
▁passengers	-12.3619
▁slice	-12.3619
▁valori	-12.3619
▁divisores	-12.3619
▁city	-12.3619
▁adder	-12.3622
debug	-12.3622
▁profits	-12.3622
▁wrong	-12.3622
▁posibles	-12.3626
▁Chess	-12.3626
▁frr	-12.3627
▁4000	-12.3628
▁coin	-12.3633
▁minute	-12.3633
▁lime	-12.3636
-1-	-12.3644
▁256	-12.3647
▁load	-12.365
▁1111	-12.3654
table	-12.3661
▁checker	-12.3667
▁suf	-12.3667
oys	-12.3669
▁eaten	-12.3679
▁cCount	-12.3681
▁vl	-12.3683
▁1.0))	-12.3687
4)	-12.3691
=1000000007	-12.3691
▁ru	-12.3692
▁cast	-12.3693
01	-12.3727
▁cdays	-12.3729
▁""8""	-12.3735
▁'3')	-12.3741
go	-12.3741
28	-12.3743
Ans	-12.375
+3	-12.3761
▁sel	-12.3761
▁gb	-12.3764
▁nimpar	-12.3774
▁maxnum	-12.3775
▁timer	-12.3793
side	-12.3809
tin	-12.3815
(((3	-12.3838
[1]--;	-12.385
▁Tie	-12.3856
][1],	-12.3858
rt	-12.3875
▁(__	-12.3877
▁""[]""	-12.3878
[20]	-12.3879
▁vm	-12.3902
pw	-12.391
ngh	-12.3924
▁100000000	-12.3926
▁rla	-12.3931
▁pm	-12.3942
son	-12.3957
[101][101]	-12.3958
▁jjj	-12.3979
gh	-12.398
otes	-12.3993
▁ifstream	-12.4007
▁divi	-12.4017
▁ops	-12.4022
▁cmax	-12.4045
▁ho	-12.405
▁99999999	-12.4078
[2000];	-12.4086
▁rank	-12.4094
abc	-12.4102
▁3000	-12.4107
maxy	-12.4109
)/2	-12.4131
ha	-12.4145
ncr	-12.4165
tab	-12.418
discount	-12.4183
▁npar	-12.4185
Len	-12.4209
Total	-12.4214
8""	-12.4216
glaceon	-12.4219
jolteon	-12.4219
▁six	-12.422
cap	-12.4233
arg	-12.424
coun	-12.4241
spf	-12.4242
240	-12.4253
ele	-12.4254
-1]+	-12.4258
▁bill	-12.4259
▁24;	-12.4267
▁norm	-12.4272
incremented	-12.4276
State	-12.428
▁capital	-12.428
wheniEndFromLeft	-12.428
▁indefinitely	-12.428
▁kecil	-12.428
▁getChar	-12.428
▁woch	-12.428
▁getAns	-12.428
▁losp	-12.4281
▁patt	-12.4282
▁shelves	-12.4282
▁nrod	-12.4282
▁restaurants	-12.4282
▁losn	-12.4282
▁actual	-12.4286
▁minimun	-12.4286
▁chance	-12.4286
▁maap	-12.4287
▁izq	-12.4289
▁Primes	-12.429
▁spyke	-12.429
▁spykeId	-12.429
▁Freq	-12.429
▁yelo	-12.429
▁Ids	-12.429
▁1][1])	-12.429
▁tipe	-12.429
▁groups	-12.429
▁Res	-12.4291
ifstream	-12.4292
▁boox	-12.4294
▁texto	-12.4296
bus	-12.4301
▁blockb	-12.4303
▁mima	-12.4305
▁NULL	-12.4306
mode	-12.4307
-3]	-12.4307
[51][51];	-12.4311
▁press	-12.4313
▁loser	-12.4314
▁mot	-12.4316
▁compari	-12.4323
▁target	-12.4323
▁rtn	-12.4328
▁100009	-12.4332
▁Ta	-12.4336
▁-1000	-12.4337
Sum	-12.4342
est	-12.4342
▁blocka	-12.4344
le	-12.4356
item	-12.436
▁tmpb	-12.4376
[400];	-12.4377
▁but	-12.4383
▁works	-12.4389
bal	-12.4392
ement	-12.4395
+5	-12.4398
▁cprice	-12.4402
[305];	-12.4413
[0][1];	-12.4427
▁prevr	-12.4429
▁un	-12.4435
▁scored	-12.4444
▁prefs	-12.4457
▁minval	-12.4459
Pos	-12.4473
▁'}')	-12.4479
▁110;	-12.4481
▁terminate	-12.4501
-1)/2	-12.4506
▁(-1	-12.4515
▁iterations	-12.452
▁1000000001	-12.4522
[10][10]	-12.4537
um	-12.4558
▁letterx	-12.4567
▁incremented	-12.4569
▁19	-12.4574
▁inc	-12.4595
SI	-12.4599
[200000];	-12.4611
hi	-12.4615
▁post	-12.4626
lower	-12.464
[2001]	-12.4649
▁'>')	-12.4652
3++;	-12.4664
8;	-12.4671
▁::	-12.4679
▁4))	-12.4704
votes	-12.4711
[111];	-12.4739
]++	-12.474
▁added	-12.474
▁comb	-12.4747
▁'0'))	-12.4761
▁pB	-12.4805
▁lenp	-12.4821
▁'_'	-12.4826
▁minp	-12.4831
ake	-12.4838
▁10000000000	-12.4873
▁57	-12.4914
▁2010	-12.4929
▁qy	-12.4932
require	-12.4935
checker	-12.4937
black	-12.4937
graph	-12.4938
remainder	-12.4938
pointer	-12.4938
MOD	-12.4939
seq	-12.4943
▁7);	-12.4946
flg	-12.4947
▁5001;	-12.4954
▁che	-12.4959
][0],	-12.496
ry	-12.4974
uantity	-12.4978
▁sheet	-12.4981
Star	-12.4982
elv	-12.4985
klmnopqrstuvwxyz	-12.4994
▁numeric	-12.4994
▁DeleteIt	-12.4994
▁fristOven	-12.4994
▁thisChar	-12.4994
▁ttoalha	-12.4994
▁girl	-12.4994
▁toalha	-12.4994
▁Init	-12.4994
▁starCount	-12.4994
▁seive	-12.4994
▁invfact	-12.4994
▁tConOven	-12.4996
▁borrow	-12.4996
▁bucket	-12.4996
▁tiga	-12.4997
▁besar	-12.4997
▁masha	-12.4998
[50][50]	-12.4999
▁banyakganjil	-12.5001
▁ganjilterkecil	-12.5001
▁tedad	-12.5001
▁Roz	-12.5001
▁100007	-12.5001
▁tren	-12.5002
▁distinct	-12.5005
▁strength	-12.5005
▁buy	-12.5007
▁444	-12.5008
▁PhoneArray	-12.5009
▁cube	-12.5009
▁hot	-12.5016
▁strArr	-12.5017
▁pearls	-12.5017
▁99	-12.5018
▁fre	-12.5019
/2)	-12.5019
▁kpk	-12.502
ither	-12.502
▁mcd	-12.5023
▁bulbs	-12.5025
▁piso	-12.5029
[210]	-12.5031
▁ey	-12.5031
▁lock	-12.5031
▁encontrado	-12.5035
▁faces	-12.504
▁nextz	-12.5045
sp	-12.5052
▁cyc	-12.5064
▁gv	-12.5066
fix	-12.5074
▁println	-12.5076
dis	-12.5076
er	-12.5078
▁rate	-12.5083
▁mCount	-12.5088
▁goo	-12.5092
▁viii	-12.51
▁360;	-12.51
▁dic	-12.5106
[15];	-12.5113
1}	-12.5113
▁colom	-12.5114
▁fib	-12.5121
ghi	-12.5122
sup	-12.5132
indx	-12.5139
chars	-12.5152
▁got	-12.5173
▁did	-12.5181
▁TIE	-12.5186
lt	-12.5186
[2]++;	-12.5187
numbers	-12.5188
▁Equal	-12.5214
▁nok	-12.5222
duo	-12.5223
0000000000000000	-12.5231
▁subtraction	-12.5242
▁ha	-12.5244
▁purple	-12.526
▁countb	-12.5267
[--	-12.5272
[1]);	-12.5277
▁1100	-12.5297
▁nom	-12.5302
times	-12.5308
▁greate	-12.5323
[9];	-12.533
▁pal	-12.5337
▁-100	-12.5338
vocale	-12.5348
[7];	-12.5371
(7	-12.5373
▁10))	-12.5385
▁gox	-12.5387
110	-12.5404
pq	-12.5423
[5000]	-12.5431
-1][0]	-12.5449
(5	-12.5498
▁1007	-12.5516
my	-12.5525
]]--;	-12.5527
ms	-12.5533
▁32)	-12.554
('-')	-12.5541
▁jmin	-12.5544
cp	-12.5554
(180	-12.5555
[205]	-12.5561
[505];	-12.5588
▁100005;	-12.5589
hang	-12.5597
▁((3	-12.5602
maxm	-12.5604
}]	-12.5606
▁minA	-12.5607
aea	-12.5622
▁oc	-12.5635
▁'='	-12.5667
vote	-12.5667
move	-12.5672
▁jmax	-12.5674
▁PRINT	-12.5675
▁((((	-12.5679
31,	-12.5696
coins	-12.57
acef	-12.57
numa	-12.5706
slot	-12.5706
node	-12.5707
speed	-12.5707
save	-12.5707
buff	-12.571
'6'	-12.5714
▁leave	-12.5728
(26	-12.5734
imak	-12.5748
▁join	-12.5751
XXL	-12.5755
pple	-12.5756
dsa	-12.5758
currnum	-12.5758
(':')	-12.5763
isTrue	-12.5763
▁Otherwise	-12.5763
▁infinity	-12.5763
▁itung	-12.5763
▁DashaCount	-12.5763
▁supply	-12.5763
[100007]	-12.5763
▁itself	-12.5764
edges	-12.5764
strgro	-12.5764
▁CityCode	-12.5766
▁consecutive	-12.5766
▁diamond	-12.5766
▁sleepTime	-12.5766
▁insect	-12.5766
▁edits	-12.5766
▁Long	-12.5766
▁quit	-12.5766
▁kount	-12.5766
▁shit	-12.5767
▁blocked	-12.5768
▁numerator	-12.5768
▁\0	-12.577
▁javab	-12.5771
▁safe	-12.5771
▁failed	-12.5771
ogo	-12.5772
▁FB	-12.5774
▁esPrimo	-12.5775
▁ivmind	-12.5775
▁1024	-12.5777
[200][200]	-12.578
▁300005	-12.578
▁mayor	-12.578
▁prevI	-12.5782
▁trig	-12.5782
▁Move	-12.5784
▁cities	-12.5784
▁myString	-12.5784
▁shapes	-12.5784
▁rub	-12.5787
/2+1	-12.5792
▁delet	-12.5792
ff	-12.5792
▁MAXX	-12.5794
▁packs	-12.5798
▁prod	-12.58
▁lift	-12.5804
▁MAXM	-12.5805
▁maxlevel	-12.5806
▁offset	-12.5809
▁impar	-12.581
▁ang	-12.581
▁modpow	-12.5811
▁Size	-12.5813
▁jav	-12.5818
▁sumodd	-12.582
words	-12.5825
▁1000)	-12.5827
▁bacterias	-12.5836
▁eight	-12.5846
ad	-12.5848
▁cry	-12.5849
▁pages	-12.5856
]-'	-12.5866
▁amounts	-12.5879
▁1500	-12.5901
▁amt	-12.592
6,	-12.5933
10;	-12.5937
[1005][1005];	-12.5941
▁boy	-12.5955
[205];	-12.5969
▁maxval	-12.597
▁years	-12.597
Num	-12.5973
▁floats	-12.5984
▁anses	-12.5989
ay	-12.5992
▁MD	-12.6
▁63	-12.6
▁""()""	-12.601
▁format	-12.6012
('0')	-12.6012
substring	-12.6026
▁2.0)	-12.6028
tem	-12.6029
▁isvowel	-12.6032
▁scoreb	-12.604
▁numD	-12.6046
biggest	-12.6051
▁bad	-12.6054
▁mpu	-12.6072
▁Penny	-12.6079
▁kmax	-12.6096
▁say	-12.6096
[200001]	-12.611
▁nnp	-12.6117
▁chr	-12.6129
▁gmax	-12.6129
sy	-12.6139
▁tlen	-12.6154
ones	-12.6167
cl	-12.6174
▁ccnt	-12.6178
▁maxC	-12.6189
[52]	-12.619
▁msum	-12.6191
[5005];	-12.6198
▁ww	-12.62
▁cntb	-12.6203
[200001];	-12.6233
▁dq	-12.6271
TE	-12.6288
dd	-12.6301
.#.#.#.#.#.|.|)	-12.6315
▁12]	-12.6325
ame	-12.6336
▁bst	-12.6337
el	-12.6362
▁998244353)	-12.6374
+1))	-12.6376
▁mnd	-12.6379
[25]	-12.6388
▁faktor	-12.6402
▁rai	-12.6422
▁""--	-12.6483
command	-12.6503
▁eat	-12.6511
shel	-12.6522
possible	-12.654
kanan	-12.654
gesture	-12.654
present	-12.654
chess	-12.654
prog	-12.6542
boolean	-12.6542
seg	-12.6543
subtract	-12.6546
lcm	-12.6546
sol	-12.655
▁pack	-12.6562
ment	-12.6569
▁aes	-12.6571
vasya	-12.6585
▁cons	-12.6595
XXS	-12.6595
▁Random	-12.6597
▁perlas	-12.6597
getPossibilities	-12.6597
▁denominador	-12.6597
▁direcciones	-12.6597
▁lunchBreakTime	-12.6597
▁maxgro	-12.6597
▁ndmny	-12.6597
▁numOfTestCases	-12.6597
▁perRowColor	-12.6597
▁MODULO	-12.6597
▁agua	-12.6597
▁getNextGap	-12.6597
▁tagua	-12.6597
▁alana	-12.6597
▁consume	-12.6597
▁buns	-12.6597
▁chrColor	-12.6597
▁term	-12.6597
▁mean	-12.6597
▁boostIO	-12.6598
▁LCA	-12.6598
onal	-12.6599
▁pict	-12.6599
▁empat	-12.6599
▁""15""	-12.6599
▁dead	-12.66
▁|.|	-12.6601
▁range	-12.6602
▁lowar	-12.6602
▁hunger	-12.6604
▁helper	-12.6604
▁catur	-12.6604
▁recur	-12.6605
▁getNum	-12.6605
▁curAns	-12.6607
▁9999	-12.6608
▁pick	-12.6611
▁bol	-12.6614
Out	-12.6614
▁Green	-12.6614
eek	-12.6618
▁2100	-12.6618
Flag	-12.6618
▁bshu	-12.6619
popcount	-12.6621
▁finishy	-12.6621
▁problems	-12.6622
XXXS	-12.6625
▁maxfather	-12.6625
▁qiu	-12.6627
sinoutput	-12.6628
▁Counter	-12.663
▁gro	-12.663
▁finishx	-12.6633
/100	-12.6634
▁sandali	-12.6635
▁fpb	-12.6636
▁pple	-12.6637
▁ratios	-12.6638
[200000]	-12.6638
▁exam	-12.664
.141592653589793	-12.6647
▁cake	-12.6648
▁blocks	-12.6654
▁zerocnt	-12.6655
2=0	-12.6656
▁lcp	-12.6658
▁curlen	-12.6659
▁cun	-12.666
▁Ex	-12.6665
▁Bn	-12.6669
nsp	-12.6672
▁Len	-12.668
maxN	-12.6687
▁hora	-12.6691
>()	-12.6697
▁1000003	-12.6699
ite	-12.67
▁87	-12.6702
▁opr	-12.6704
▁100011	-12.6736
▁seven	-12.6748
▁currentans	-12.6766
▁going	-12.6778
▁Red	-12.6779
▁ignore	-12.6792
▁upd	-12.6799
▁contest	-12.6817
▁use	-12.6817
▁disc	-12.6817
con	-12.6821
replaced	-12.6831
............|	-12.686
{}	-12.6886
▁""|.|)""	-12.6888
▁""|.|""	-12.689
8"")	-12.69
(2);	-12.6927
[1111]	-12.6927
▁36)	-12.693
▁65]	-12.6934
.#.|.|)""	-12.6936
.#.#.|.|)""	-12.6936
▁nod	-12.6937
▁Rajesh	-12.6937
▁Leonard	-12.6937
▁Sheldon	-12.6937
.#.|.|""	-12.694
.#.#.|.|""	-12.694
[10005]	-12.6962
▁strr	-12.6971
▁nnl	-12.6972
▁120;	-12.6978
.#.#.#.#.|.|)""	-12.6987
▁55;	-12.6991
bit	-12.6997
.#.#.#.|.|)""	-12.6998
.#.#.#.#.|.|""	-12.6999
.#.#.#.|.|""	-12.7001
▁lal	-12.7005
force	-12.7011
[2]))	-12.704
▁19)	-12.7059
▁1000010;	-12.7068
[1000001];	-12.707
7,	-12.7077
▁4);	-12.7085
▁200000)	-12.7087
▁ntc	-12.7095
ast	-12.7104
.#.#.#.#.#.|.|""	-12.711
▁os	-12.7113
▁curl	-12.7119
ent	-12.7135
▁lett	-12.7158
▁lon	-12.7161
▁we	-12.718
br	-12.7198
▁500000	-12.7227
▁tres	-12.7228
*10	-12.725
▁30)	-12.7265
▁pred	-12.7276
▁usa	-12.7289
[1000000]	-12.729
220	-12.7307
▁lastm	-12.7315
▁Maxn	-12.7325
-10	-12.7333
--])	-12.7358
#.#.#.#.|.|""	-12.737
▁"",0	-12.7388
Index	-12.7391
▁"""")	-12.7393
[0]['	-12.7398
ute	-12.7401
our	-12.7418
Size	-12.743
8,	-12.7438
XL	-12.7445
fail	-12.7445
islower	-12.7445
target	-12.7448
INPUT	-12.7449
""1/6""	-12.7449
plus	-12.745
otherwise	-12.745
rfind	-12.7455
fathercnt	-12.7455
▁termina	-12.7484
▁chore	-12.749
▁1000000000000	-12.7494
items	-12.7499
▁leftPreSum	-12.7506
▁rightPreSum	-12.7506
▁extreme	-12.7506
▁maxPrime	-12.7506
▁common	-12.7506
▁trone	-12.7506
Player	-12.7507
▁tail	-12.7508
limits	-12.7508
▁""1/1""}	-12.7508
▁secretary	-12.7509
▁CASE	-12.7509
▁connected	-12.7509
▁inicio	-12.7509
▁notebooks	-12.7509
▁numerador	-12.7509
▁tambah	-12.7509
▁numofelements	-12.7509
▁totalSec	-12.7509
▁wallet	-12.7509
▁reqrec	-12.7509
▁esto	-12.7509
▁meio	-12.7509
▁sufmax	-12.7509
▁multiset	-12.7509
▁uper	-12.7511
▁phnum	-12.7511
▁primo	-12.7513
▁amigos	-12.7514
▁correct	-12.7514
▁curDay	-12.7514
vet	-12.7518
▁Ncoins	-12.7518
Po	-12.7519
▁dryer	-12.752
▁Data	-12.752
▁blep	-12.752
▁aramic	-12.752
▁neg	-12.7521
XS	-12.7524
▁getwin	-12.7524
▁mapper	-12.7526
▁pkt	-12.7527
▁hap	-12.7528
▁trunc	-12.7531
++""	-12.7532
▁winC	-12.7536
▁maxWin	-12.7537
▁ostringstream	-12.7537
▁holidays	-12.7537
▁outfile	-12.7538
▁eevee	-12.7542
▁gcdofarray	-12.7542
XXXL	-12.7543
▁FA	-12.7544
▁infile	-12.7548
▁free	-12.7553
(2.0	-12.7557
▁checkodd	-12.7558
▁MaxN	-12.7562
▁winA	-12.7563
▁prob	-12.7563
▁""6""	-12.7564
+1+	-12.7565
▁sumeven	-12.7569
▁expo	-12.7569
▁datt	-12.7576
▁CT	-12.76
▁marked	-12.7603
▁kiu	-12.7622
▁wen	-12.7622
ut	-12.7638
resta	-12.7642
▁arrpos	-12.7646
ratio	-12.7654
▁oddsum	-12.7669
▁getans	-12.7677
▁ajout	-12.7677
▁exc	-12.7679
▁lights	-12.7687
▁'6')	-12.7693
fin	-12.7696
▁vct	-12.7697
▁srt	-12.7698
▁faktori	-12.7727
▁undefined	-12.774
▁']')	-12.7743
▁ofstream	-12.7747
▁10000000;	-12.7748
▁cnew	-12.7759
[150]	-12.7769
▁1000005;	-12.7771
▁Dasha	-12.7776
▁Masha	-12.7776
▁'_')	-12.7778
▁evensum	-12.7784
se	-12.7788
▁ph	-12.7818
7(	-12.7822
▁teste	-12.7825
gdc	-12.783
ates	-12.7841
rows	-12.7844
▁bnew	-12.7876
sorted	-12.7877
▁outt	-12.7891
▁tempc	-12.7906
▁2002	-12.7914
']);	-12.7958
rd	-12.7968
▁paper	-12.7968
[10001];	-12.7973
▁Power	-12.7976
rs	-12.7983
▁scissors	-12.7998
▁""|.|	-12.8061
Ca	-12.807
▁mpow	-12.8072
impar	-12.8115
▁mapp	-12.8119
▁1000001;	-12.8148
▁sorte	-12.8167
[4][4];	-12.8167
[100009]	-12.8171
nom	-12.8193
▁""1/1	-12.8219
▁1)))	-12.8229
▁local	-12.8231
-2,	-12.8252
▁49	-12.8268
▁""|.|)	-12.8271
3_1	-12.8273
(4);	-12.8278
ers	-12.8279
maxNum	-12.8291
▁checks	-12.8306
▁""?	-12.8321
▁ju	-12.8324
tSum	-12.8332
asn	-12.8337
▁fcount	-12.834
▁|#.	-12.8349
palindrome	-12.8349
▁boost	-12.8352
alpha	-12.8361
[500]	-12.8364
[200010];	-12.8383
two	-12.8391
udah	-12.8397
44	-12.8407
▁Get	-12.8409
month	-12.8409
▁100010;	-12.8416
gl	-12.8433
▁10005;	-12.8439
final	-12.844
dishes	-12.8445
encontrado	-12.8448
load	-12.8449
OUTPUT	-12.8449
locg	-12.8449
character	-12.845
calc	-12.8453
tmo	-12.8456
'8'	-12.8456
(2*	-12.8456
seed	-12.8457
than	-12.846
stones	-12.8467
floors	-12.847
▁suc	-12.8472
▁feet	-12.8473
▁duplicate	-12.8473
del	-12.8476
▁anew	-12.8476
isited	-12.8476
#.#.#.|.|)	-12.8477
angle	-12.8478
sec	-12.8478
cad	-12.8491
off	-12.8493
'9'	-12.85
▁har	-12.85
▁compute	-12.8503
▁succ	-12.8505
SEC	-12.8506
[200020];	-12.8506
berOfRestaurants	-12.8506
▁cambio	-12.8506
▁collumn	-12.8506
▁conceed	-12.8506
▁cross	-12.8506
▁difficulty	-12.8506
▁floorToGo	-12.8506
▁getPr	-12.8506
▁hishab	-12.8506
▁inverse	-12.8506
▁militros	-12.8506
▁repeticiones	-12.8506
▁spectator	-12.8506
▁READ	-12.8506
▁colums	-12.8506
▁radius	-12.8506
▁sumador	-12.8506
6744073709551615	-12.8506
▁armor	-12.8506
▁mitad	-12.8506
▁NWD	-12.8506
▁funcion	-12.8506
▁takeoffMin	-12.8506
▁kuda	-12.8506
▁Pedy	-12.8506
▁prize	-12.8506
▁200020	-12.8506
[300]	-12.8506
▁yeet	-12.8506
▁tiempo	-12.8506
▁srand	-12.8506
▁Run	-12.8507
▁fastMin	-12.8507
▁adivb	-12.8507
▁equ	-12.8507
▁rount	-12.8507
▁bdiva	-12.8507
(30	-12.8508
▁valfin	-12.8508
▁fastMax	-12.8508
▁rht	-12.8508
▁zeroes	-12.8509
▁lastSum	-12.8509
▁complexity	-12.8509
▁""0123456789""	-12.8509
▁Goals	-12.8509
▁expect	-12.8509
▁maxWord	-12.8509
▁noOfprizes	-12.8509
▁occurrences	-12.8509
▁rightMost	-12.8509
▁revStr	-12.8509
▁sequence	-12.8509
▁firstSum	-12.8509
▁incremen	-12.8509
▁gtw	-12.851
▁avai	-12.851
[20][20]	-12.8511
▁draw	-12.8511
▁numOfteams	-12.8511
▁447	-12.8512
▁minimal	-12.8512
▁cadena	-12.8513
▁1}}	-12.8514
▁bohlam	-12.8515
▁cheapest	-12.8515
▁secnumbs	-12.8515
▁assistantTemps	-12.8515
▁Names	-12.8515
▁house	-12.8515
▁secretaryNum	-12.8515
▁shoes	-12.8515
▁maxName	-12.8515
▁newnut	-12.8515
▁""8<""	-12.8515
▁-1000000000	-12.8515
▁testcases	-12.8515
▁wincandidate	-12.8516
(8)	-12.8517
▁indG	-12.852
▁ansh	-12.852
▁absent	-12.852
▁ucont	-12.8521
▁hush	-12.8521
▁MashaCount	-12.8521
▁flagee	-12.8522
▁firstOn	-12.8523
▁MINN	-12.8523
▁wong	-12.8525
▁kill	-12.8525
▁control	-12.8526
▁arena	-12.8527
▁bulb	-12.8528
▁zuo	-12.8528
maxmum	-12.8531
cy	-12.8533
▁mayu	-12.8533
▁474	-12.8534
▁yiti	-12.8534
--]	-12.8535
▁bexc	-12.8536
▁gas	-12.8538
])]++;	-12.8539
▁Colours	-12.854
▁makeChanges	-12.854
▁arya	-12.854
▁maxer	-12.8541
▁duplicates	-12.8541
▁bot	-12.8542
▁10000005	-12.8543
▁minodd	-12.8543
▁plans	-12.8543
▁winB	-12.8545
▁shap	-12.8547
▁proc	-12.8547
▁'0']	-12.8547
▁chores	-12.8549
▁currgcd	-12.8551
▁maxLen	-12.8551
▁curInd	-12.8552
▁DP	-12.8554
Mina	-12.8554
▁97]++;	-12.8557
▁dCount	-12.8558
▁lev	-12.8558
▁indexG	-12.8559
▁leaves	-12.8562
▁ttem	-12.8564
▁100}	-12.8569
▁ashu	-12.8569
▁Index	-12.8571
▁kiri	-12.8576
▁(-1);	-12.858
[1][0])	-12.8582
▁100004	-12.859
▁require	-12.859
▁104	-12.8593
▁lab	-12.8595
▁bro	-12.86
▁rev	-12.86
▁(2*	-12.8604
{1,	-12.8614
▁ispalindrome	-12.8616
ceils	-12.8618
ava	-12.862
[200010]	-12.863
▁cum	-12.863
NA	-12.8631
lat	-12.8631
>('	-12.8632
▁Found	-12.8636
▁modex	-12.8637
▁matr	-12.8637
▁lineTime	-12.8641
[20000]	-12.8652
▁9999999999	-12.8653
▁mbs	-12.8664
▁sumw	-12.8671
▁stars	-12.8675
▁Impossible	-12.868
3_2	-12.869
68	-12.8692
▁lasth	-12.8694
cmn	-12.8701
▁winm	-12.8704
colors	-12.8706
▁minTime	-12.8713
▁god	-12.8725
▁isalpha	-12.8725
▁NP	-12.873
▁vaa	-12.8737
=10	-12.8738
▁intege	-12.8744
▁der	-12.8744
▁mintime	-12.8748
▁jw	-12.8754
▁1000000002	-12.8768
▁5))	-12.8792
▁pending	-12.8795
▁itm	-12.8811
▁107	-12.8815
▁auxl	-12.8816
▁DL	-12.8821
▁gra	-12.8828
[35][35];	-12.8832
▁1000003;	-12.8832
▁57)	-12.884
-1][1]	-12.887
▁clen	-12.8875
[5001]	-12.888
1_2	-12.8895
[-1]	-12.8905
▁14)	-12.8924
▁ycost	-12.8935
▁maxP	-12.894
[201];	-12.8942
▁minb	-12.8949
▁lg	-12.895
▁countr	-12.8966
▁220)	-12.8969
▁1][3]	-12.8976
▁25;	-12.8987
▁incr	-12.901
▁99999999;	-12.9015
[0]))	-12.902
'0'	-12.9028
=5	-12.9032
3))	-12.9035
▁sumtime	-12.9055
▁maxid	-12.9056
▁pA	-12.9068
▁sal	-12.9126
ope	-12.913
▁vect	-12.9131
thing	-12.9134
(97	-12.9137
▁Malvika	-12.9145
▁aY	-12.9153
=4	-12.9155
▁Akshat	-12.9177
pts	-12.9184
▁kind	-12.9205
(3)	-12.9205
[1002]	-12.9213
▁""+"")	-12.923
[102]	-12.9237
2[0];	-12.9267
ine	-12.928
▁minr	-12.9282
[150];	-12.929
▁cns	-12.9293
▁lenA	-12.9307
▁1000007	-12.935
▁ave	-12.9369
▁52	-12.939
▁Ca	-12.94
mmin	-12.9426
ngle	-12.9427
req	-12.9461
▁300000	-12.9464
lim	-12.9475
2])	-12.9486
ete	-12.95
▁1000000001;	-12.9504
cei	-12.9507
▁-10	-12.9514
game	-12.9524
▁tests	-12.9534
[400]	-12.9536
sed	-12.9536
hole	-12.9547
BWBWBWBW	-12.9554
WBWBWBWB	-12.9554
nextprev	-12.9555
multiplos	-12.9556
checkodd	-12.956
normal	-12.956
criba	-12.956
misha	-12.956
hotels	-12.956
active	-12.956
record	-12.956
matriz	-12.956
tree	-12.956
oven	-12.9561
sieve	-12.9561
three	-12.9561
path	-12.9561
deg	-12.9561
offset	-12.9562
{0,	-12.9563
nike	-12.9565
myset	-12.9566
cakes	-12.9567
▁nome	-12.9567
-1])	-12.9569
loser	-12.9571
cmd	-12.9572
eclare	-12.9576
▁minCoin	-12.9582
MX	-12.9594
levator	-12.9597
_7	-12.9599
▁lane	-12.9605
emb	-12.9611
▁fro	-12.9615
▁baack	-12.9617
axDominoesNumber	-12.9617
domino	-12.9617
participantes	-12.9617
white	-12.9617
▁Amaze	-12.9617
▁request	-12.9617
▁tujuh	-12.9617
▁contCh	-12.9617
▁originalsquare	-12.9617
▁tranSize	-12.9617
▁excluisve	-12.9617
▁blank	-12.9617
[300000]	-12.9617
roll	-12.9617
▁saida	-12.9617
540	-12.9617
▁water	-12.9617
▁meet	-12.9617
▁Mininum	-12.9617
▁BIT	-12.9618
▁30010	-12.9619
▁bookgreen	-12.962
▁particpant	-12.9621
▁aPrices	-12.9621
▁aTypes	-12.9621
▁bhoric	-12.9621
▁bvoric	-12.9621
▁fatias	-12.9621
▁maxsuff	-12.9621
▁minMatch	-12.9621
▁nEven	-12.9621
▁niceWord	-12.9621
▁numhours	-12.9621
▁qoutplayers	-12.9621
▁remnut	-12.9621
▁From	-12.9621
▁falta	-12.9621
▁totCc	-12.9621
▁takeoff	-12.9621
▁Result	-12.9621
▁room	-12.9621
▁isInn	-12.9621
▁oCount	-12.9621
▁massiv	-12.9621
▁token	-12.9621
[128]	-12.9621
▁boss	-12.9622
▁notation	-12.9622
reversedNumber	-12.9622
▁miax	-12.9624
▁huiwen	-12.9624
▁""1111111""	-12.9627
▁""0000000""	-12.9628
▁wnr	-12.9632
[1010][1010]	-12.9632
▁prodm	-12.9633
▁zer	-12.9634
▁Bstep	-12.9634
▁comando	-12.9634
▁sideMoves	-12.9634
▁vertical	-12.9634
▁verticalMoves	-12.9634
▁toPurchase	-12.9634
▁aexc	-12.9635
▁Bwin	-12.9636
▁ciel	-12.9637
▁prefixed	-12.9637
▁menorW	-12.9638
▁elevator	-12.964
▁feature	-12.9641
▁relax	-12.9641
▁awal	-12.9642
▁nomer	-12.9642
▁minsteps	-12.9643
▁esq	-12.9643
▁uts	-12.9644
▁wak	-12.9645
▁menorB	-12.9645
▁100050	-12.9647
▁qplayers	-12.9648
echo	-12.9648
▁intergers	-12.9649
▁-10000	-12.9651
▁stay	-12.9659
▁rts	-12.9662
▁pascal	-12.9662
▁eid	-12.9664
[501]	-12.9664
▁rowCount	-12.9664
▁maxsec	-12.9666
▁spect	-12.9666
▁istringstream	-12.9667
▁alphabetical	-12.9669
agi	-12.9673
xay	-12.9674
▁BG	-12.9684
▁ttwo	-12.9685
letters	-12.9695
▁80	-12.9696
▁volume	-12.9697
digits	-12.9701
▁rcont	-12.9703
▁2000000	-12.9703
▁Minv	-12.9713
2+	-12.9716
▁drinks	-12.9718
▁discount	-12.9728
rr	-12.9735
▁vowels	-12.9737
[2][0])	-12.9738
ero	-12.9745
▁kw	-12.9757
▁indexT	-12.9774
▁mns	-12.9784
var	-12.9785
▁1000000005	-12.979
▁inpp	-12.9795
▁demy	-12.9803
▁maxdiff	-12.9809
▁cmx	-12.9813
▁mindiff	-12.9814
minx	-12.9815
-1]-	-12.9829
then	-12.9835
▁rea	-12.9841
▁scan	-12.9843
▁23;	-12.9844
[1000010];	-12.9866
90	-12.9884
plen	-12.9887
▁isFound	-12.9888
▁ULDR	-12.9897
▁com	-12.9898
▁endpos	-12.9902
▁34	-12.9903
▁80;	-12.991
▁months	-12.9913
▁prer	-12.9917
▁mxpos	-12.9919
▁maxh	-12.9928
▁crest	-12.9939
.|.|""	-12.9958
▁dataa	-12.996
▁UR	-12.997
cmx	-12.9983
#.#.#.#.|.|	-13.0015
▁dna	-13.0023
▁2.0);	-13.0026
]+1	-13.0027
(3);	-13.0046
▁Is	-13.0061
▁away	-13.0068
▁minsum	-13.007
isp	-13.0074
▁103	-13.0075
▁minim	-13.0077
▁lista	-13.0084
▁demx	-13.0085
oma	-13.009
▁'9';	-13.0096
▁',')	-13.0102
lg	-13.0103
▁1010;	-13.0114
▁blen	-13.0127
▁uni	-13.0139
▁24)	-13.0145
ng	-13.0166
[1000005]	-13.0171
▁wc	-13.0178
▁-10;	-13.0186
▁cmn	-13.0214
(6);	-13.0239
mnm	-13.0244
ev	-13.0247
▁curans	-13.0275
_8	-13.0277
+1)*	-13.0287
▁tmpa	-13.0307
[1100];	-13.0318
▁nowl	-13.0336
▁finish	-13.0352
[55][55]	-13.0382
(((	-13.0382
▁wins	-13.0398
[3]++;	-13.0422
35	-13.0428
9);	-13.0493
▁substrings	-13.0513
1};	-13.0558
[5]++;	-13.0581
▁2]))	-13.0596
8)	-13.0611
strr	-13.0619
▁sid	-13.0623
drink	-13.065
▁cz	-13.0674
tfingers	-13.0704
▁cer	-13.0708
▁tone	-13.072
(4,	-13.0725
vocal	-13.0738
/(	-13.0738
IS	-13.074
/4	-13.0748
265358979323846	-13.0748
Diamond	-13.0749
▁1]]++;	-13.0754
light	-13.0773
▁IMPOSSIBLE	-13.0773
▁stu	-13.0776
▁compar	-13.0781
▁3.1415926535	-13.0783
▁1002	-13.0783
)10	-13.0797
text	-13.0801
yello	-13.0803
-1)*	-13.0803
ocal	-13.0805
pasos	-13.0806
Union	-13.0807
twoPow	-13.0807
candidate	-13.0808
curInd	-13.0808
202002	-13.0808
sandali	-13.0809
minIncl	-13.0809
pntr	-13.081
piso	-13.081
memo	-13.081
crew	-13.081
participants	-13.081
fuel	-13.0811
▁mirror	-13.0811
Way	-13.0812
carry	-13.0812
maxSize	-13.0813
mul	-13.0814
pot	-13.0814
comp	-13.0814
[51];	-13.0815
pro	-13.0815
numver	-13.0816
maks	-13.0817
qmarks	-13.0818
Set	-13.0823
'7'	-13.0823
same	-13.0824
▁hah	-13.0824
ric	-13.0825
poww	-13.0828
▁interger	-13.0831
minus	-13.0832
Start	-13.0832
nuts	-13.0834
neo	-13.0835
Amount	-13.0839
zzzzzzzzzz	-13.084
cdays	-13.0841
age	-13.0841
eraseN	-13.0847
47	-13.085
fff	-13.0856
▁-9999999	-13.0858
mol	-13.0858
rla	-13.0866
nominator	-13.0867
ntersectionsleft	-13.0867
▁48620	-13.0867
▁banyakapel	-13.0867
▁banyakpear	-13.0867
▁crearCriba	-13.0867
▁myCards	-13.0867
▁originalState	-13.0867
▁plyrs	-13.0867
▁zeroRemover	-13.0867
6789	-13.0867
AMPAGNE	-13.0867
BBBBBBB	-13.0867
BRANDY	-13.0867
FLAG	-13.0867
NumberOfContests	-13.0867
NumberOfStations	-13.0867
TheOtherDestance	-13.0867
UILA	-13.0867
banyaklemon	-13.0867
espeon	-13.0867
uelta	-13.0867
vaporeon	-13.0867
▁12870	-13.0867
▁IleMeczy	-13.0867
▁LastCommom	-13.0867
▁NumOfFree	-13.0867
▁akmal	-13.0867
▁binarycoding	-13.0867
▁entered	-13.0867
▁excusive	-13.0867
▁goRest	-13.0867
▁inPutStr	-13.0867
▁indices	-13.0867
▁logarith	-13.0867
▁mxcommon	-13.0867
▁numFour	-13.0867
▁screen	-13.0867
▁shovelNum	-13.0867
▁strunity	-13.0867
▁tabeSize	-13.0867
▁tplays	-13.0867
▁ultsel	-13.0867
▁usadas	-13.0867
▁xaydung	-13.0867
▁Ceil	-13.0867
▁kvbox	-13.0867
▁reflection	-13.0867
▁replacement	-13.0867
▁totAll	-13.0867
▁urut	-13.0867
BEER	-13.0867
▁BFS	-13.0867
▁duck	-13.0867
▁maxgas	-13.0867
▁rexxx	-13.0867
▁hours	-13.0867
[200100]	-13.0867
▁toUpp	-13.0867
digitos	-13.0867
▁section	-13.0867
rMod	-13.0867
▁floorNum	-13.0867
▁Doaa	-13.0867
▁nInputs	-13.0867
▁reverseStr	-13.0867
081	-13.0867
GIN	-13.0867
▁3432	-13.0867
▁writeln	-13.0867
Oven	-13.0867
▁contBa	-13.0867
▁otherday	-13.0867
▁another	-13.0868
▁ASS	-13.0868
▁wordLen	-13.0868
▁simulate	-13.0868
▁prezero	-13.087
reached	-13.087
▁putprime	-13.087
▁Find	-13.087
▁semi	-13.0871
4);	-13.0871
EY	-13.0871
WINE	-13.0871
▁Potega	-13.0871
▁arrSorted	-13.0871
▁flush	-13.0871
▁importance	-13.0871
▁inputLength	-13.0871
▁isTwo	-13.0871
▁totalChocolate	-13.0871
▁arrOccur	-13.0871
▁chrisCounter	-13.0871
▁mishkaCounter	-13.0871
▁segment	-13.0871
▁women	-13.0871
▁plNumber	-13.0872
▁isOne	-13.0872
▁nsticks	-13.0872
▁Try	-13.0872
▁mesto	-13.0872
▁vetor	-13.0872
▁747	-13.0873
▁vol	-13.0873
▁contBi	-13.0873
▁477	-13.0873
▁deck	-13.0874
▁Wstep	-13.0874
▁ES	-13.0874
▁Calc	-13.0875
(20)	-13.0875
▁chrish	-13.0876
▁flights	-13.0876
▁774	-13.0877
▁pjg	-13.0877
▁borderPoints	-13.0879
▁watched	-13.0879
▁downLetter	-13.0879
▁identical	-13.0879
▁tempSame	-13.0879
▁upLetter	-13.0879
▁Pow	-13.0879
▁parity	-13.0879
▁raices	-13.0879
▁Waste	-13.0879
▁nrsel	-13.0879
▁streak	-13.0879
▁smlr	-13.0879
▁SumOf	-13.0879
▁jiati	-13.088
▁744	-13.088
▁-2}	-13.088
▁delta	-13.088
▁insertion	-13.088
RUM	-13.0881
▁leg	-13.0881
▁DE	-13.0883
Ull	-13.0883
▁bran	-13.0884
▁PE	-13.0885
▁1000000010	-13.0885
▁nhap	-13.0886
▁1000000000)	-13.0886
▁654	-13.0886
▁util	-13.0887
▁cas	-13.0887
▁gtr	-13.0888
▁unos	-13.0889
▁margesort	-13.0889
▁movesB	-13.0891
cordin	-13.0891
▁sizebul	-13.0892
▁dhurr	-13.0895
▁polje	-13.0895
▁guiones	-13.0895
▁strng	-13.0896
▁bag	-13.0899
▁mininc	-13.09
[100100];	-13.0901
▁firstPointer	-13.0903
MP	-13.0904
▁924	-13.0906
tations	-13.0906
▁asli	-13.0907
▁lanes	-13.0908
▁feets	-13.0913
▁Mcost	-13.0914
gg	-13.0915
▁ratio	-13.0915
[4]++;	-13.0916
▁100.0)	-13.0917
[1][0]][1]	-13.0918
▁lastSoldier	-13.0919
[1][1]][1]	-13.0919
▁poz	-13.0921
▁LIM	-13.0921
▁7))	-13.0924
▁Win	-13.0924
▁maxba	-13.0925
▁202002	-13.0926
▁toInt	-13.0927
▁twoPow	-13.0927
▁alp	-13.0929
▁nslice	-13.0932
#.#.#.#.|.|)""	-13.0938
▁shela	-13.0939
▁limes	-13.0943
opt	-13.0944
▁checkdouble	-13.0945
▁dsk	-13.0946
▁creq	-13.0949
▁TR	-13.0954
▁math	-13.0964
alt	-13.0968
▁hred	-13.0969
zeros	-13.097
▁desks	-13.0971
▁when	-13.0971
-1))	-13.0973
▁zcost	-13.0982
▁mindist	-13.0982
▁-(-	-13.0988
[3]))	-13.0989
▁maxcol	-13.099
▁fasum	-13.0995
▁Getint	-13.0997
▁2000;	-13.1
-1.0	-13.1
▁secs	-13.1
▁diry	-13.1011
▁getsum	-13.1012
▁jwbn	-13.1018
minTemp	-13.1021
▁31)	-13.1034
▁"")""	-13.1038
▁rel	-13.104
▁mnth	-13.1045
▁1000004	-13.1048
▁Ch	-13.1052
▁who	-13.1058
15;	-13.1059
dat	-13.106
▁remv	-13.1061
▁dari	-13.1065
▁weights	-13.1074
▁mis	-13.1078
▁hmn	-13.1081
▁bxb	-13.1082
▁""7"";	-13.1087
+4	-13.1089
▁[5][5]	-13.1091
▁tick	-13.1096
▁chI	-13.1098
▁dip	-13.1099
nor	-13.1105
▁viy	-13.1115
[31]	-13.1119
▁inindex	-13.1119
▁EASY	-13.1128
()->	-13.1131
▁totalc	-13.1134
▁0.01	-13.1141
▁0.5;	-13.1149
▁winc	-13.1156
=5*	-13.1157
[505]	-13.1166
reach	-13.1173
▁finala	-13.1184
-15	-13.1201
▁70	-13.1203
[7	-13.1206
▁inst	-13.1213
▁Bu	-13.1231
▁dirx	-13.1236
starty	-13.1252
lag	-13.1262
▁joo	-13.1267
▁wit	-13.1271
▁tmpB	-13.1281
[3].	-13.13
▁Maxa	-13.1309
▁pan	-13.1313
▁3.14159265359	-13.1335
▁cil	-13.1339
▁anstemp	-13.1352
9999999999	-13.1353
▁subs	-13.1358
▁2000001	-13.136
▁lenB	-13.1377
[120]	-13.1389
▁compa	-13.1389
▁remainders	-13.1396
ls	-13.1407
▁62	-13.1409
ww	-13.1409
▁nCount	-13.1415
numb	-13.1417
▁cty	-13.1423
▁port	-13.1447
[1100]	-13.1447
▁lmax	-13.1452
▁bio	-13.1453
▁dar	-13.1454
▁77	-13.1456
bstartc	-13.1457
▁1)));	-13.147
▁Ma	-13.1471
▁sor	-13.1476
▁85	-13.1489
▁isit	-13.149
▁100))	-13.1495
-5	-13.1503
*5	-13.151
▁arc	-13.1514
▁lar	-13.1518
▁isupper	-13.1529
▁Soul	-13.156
▁Space	-13.1561
▁Reality	-13.1562
[100][100]	-13.1572
▁""4"";	-13.1599
▁108	-13.1603
▁absu	-13.1617
[6	-13.1634
[10001]	-13.1651
▁5005;	-13.169
▁btot	-13.1708
fg	-13.1708
▁32);	-13.1712
▁99999	-13.1726
▁remn	-13.1733
[110][110]	-13.1738
/60	-13.1748
1)/	-13.1763
▁wh	-13.1768
▁totd	-13.1814
1[1]++;	-13.1821
dub	-13.1831
▁nsp	-13.1839
fun	-13.1846
▁Mind	-13.1852
▁minib	-13.1876
▁flagB	-13.1889
1000	-13.1908
msk	-13.1914
▁""..|	-13.1951
++];	-13.1961
ctr	-13.1972
▁Pi	-13.198
▁maxA	-13.1982
pb	-13.1991
▁mink	-13.2048
▁2222	-13.2049
rtr	-13.2069
▁1003	-13.2071
▁Sr	-13.2088
7);	-13.2093
▁mapa	-13.2113
[100002];	-13.2116
▁'8'))	-13.2125
▁cY	-13.2127
[2][2])	-13.2139
rot	-13.2157
cou	-13.2184
page	-13.219
medal	-13.2196
floor	-13.2203
ABS	-13.2229
lastSoldier	-13.2236
pascal	-13.2236
eevee	-13.2237
gcdofarray	-13.2237
rowCount	-13.2237
Counter	-13.2237
zhi	-13.2237
ofstream	-13.2238
column	-13.2238
palabra	-13.2238
mishka	-13.2239
rotate	-13.2239
parent	-13.2239
cycle	-13.2239
computer	-13.2239
▁istrue	-13.224
bytes	-13.224
toupper	-13.224
isvowel	-13.224
)));	-13.2241
sion	-13.2245
▁guest	-13.2251
qta	-13.2261
=2*	-13.2265
lef	-13.2266
▁gift	-13.227
fast	-13.2273
100010	-13.2273
74	-13.2273
▁pearl	-13.2274
razn	-13.2275
ptr	-13.2279
▁111111	-13.2283
(1))	-13.2287
▁Check	-13.2289
▁scorea	-13.229
▁sequential	-13.2295
ockets	-13.2295
AllFirendsOfMili	-13.2295
erfect	-13.2295
memcpy	-13.2295
respuesta	-13.2295
uniqueCharacters	-13.2295
▁Solution	-13.2295
▁WandC	-13.2295
▁alphanumeric	-13.2295
▁aumento	-13.2295
▁collect	-13.2295
▁elapsed	-13.2295
▁firstLine	-13.2295
▁leavekid	-13.2295
▁mapOfColumn	-13.2295
▁minLimon	-13.2295
▁numOfInfo	-13.2295
▁numberOfMove	-13.2295
▁punkty	-13.2295
▁random	-13.2295
▁social	-13.2295
▁sumNeg	-13.2295
▁supercentral	-13.2295
▁timeOfEnding	-13.2295
▁tsocial	-13.2295
▁comeco	-13.2295
▁mapOfRow	-13.2295
▁bonus	-13.2295
▁belum	-13.2295
▁fraction	-13.2295
▁minSal	-13.2295
▁patok	-13.2295
▁gear	-13.2296
▁playerState	-13.2296
▁kiekis	-13.2296
paichi	-13.2296
▁Wsp	-13.2297
▁bord	-13.2297
▁fang	-13.2297
▁xiao	-13.2298
*10+	-13.2298
des	-13.2298
[19]	-13.2298
▁simmin	-13.2299
paila	-13.2299
▁build	-13.23
▁0.25)	-13.2301
▁maxSol	-13.2301
▁noOfStudents	-13.2301
▁peeps	-13.2301
▁pertama	-13.2301
▁selisih	-13.2301
▁vertikal	-13.2301
▁warOpen	-13.2301
▁casiresp	-13.2301
▁mejor	-13.2301
▁divUp	-13.2301
▁kedua	-13.2301
▁recursion	-13.2301
▁backward	-13.2301
▁success	-13.2301
▁fastexpo	-13.2301
▁programming	-13.2301
▁Mark	-13.2301
▁deflt	-13.2301
▁lasteven	-13.2301
▁flot	-13.2301
▁wasOut	-13.2301
▁cilik	-13.2301
▁gede	-13.2302
▁mySum	-13.2302
▁maxTemp	-13.2302
▁lastodd	-13.2302
▁revert	-13.2302
▁remdiv	-13.2304
▁veces	-13.2305
▁evenCount	-13.2306
▁Day	-13.2306
etya	-13.2306
▁lsh	-13.2307
▁Nig	-13.2308
loc	-13.2309
▁isLucky	-13.2309
)(1	-13.2309
▁curWorst	-13.2309
▁triangle	-13.231
▁maior	-13.231
▁nowsafe	-13.231
▁satuan	-13.231
▁vow	-13.2311
▁5000000	-13.2311
▁maximo	-13.2314
LE	-13.2315
▁gum	-13.2317
▁svr	-13.2318
rate	-13.2318
▁question	-13.2319
▁schedule	-13.2319
▁secondPointer	-13.2319
▁""..""	-13.232
▁stairs	-13.232
▁rgt	-13.2321
▁setIt	-13.2321
▁mainvector	-13.2321
▁mndist	-13.2322
▁study	-13.2322
▁eCount	-13.2323
▁clm	-13.2324
AND	-13.2327
▁shelb	-13.2328
▁tabuleiro	-13.2328
nLim	-13.2328
kk	-13.2331
▁jvb	-13.2335
▁nextprime	-13.2336
▁inside	-13.2337
▁update	-13.2337
▁combSort	-13.2337
▁fra	-13.234
▁Tot	-13.2344
▁Str	-13.2344
▁jud	-13.2345
▁gifts	-13.2346
▁skr	-13.2352
▁180-	-13.2353
▁solu	-13.2357
sizeof	-13.2358
▁aws	-13.236
▁instr	-13.2363
▁Union	-13.2365
▁INFL	-13.2369
▁liz	-13.237
▁multiplos	-13.2375
▁hole	-13.2375
▁vote	-13.2379
▁dishes	-13.2384
▁newsquare	-13.2384
▁glo	-13.2385
▁deleta	-13.2396
▁cval	-13.2398
▁flr	-13.2399
▁reus	-13.2403
▁RC	-13.2405
▁LC	-13.2405
▁Bd	-13.2411
▁fcounter	-13.2418
▁prv	-13.2424
▁60);	-13.2425
▁floating	-13.2431
▁glaceon	-13.2432
▁jolteon	-13.2432
▁sievesize	-13.2432
▁oranges	-13.2437
▁1023	-13.2438
▁minas	-13.244
▁umbreon	-13.2442
▁sylveon	-13.2442
▁flareon	-13.2442
10"	-13.2442
▁cpt	-13.2449
▁1000100	-13.2453
▁acumx	-13.2455
1=""	-13.2457
▁sudah	-13.2461
▁605	-13.2463
▁Rb	-13.2466
sag	-13.2467
lie	-13.247
▁cntone	-13.2473
_1(	-13.2483
▁cul	-13.2485
rec	-13.25
▁mnb	-13.2504
▁see	-13.2506
▁towel	-13.2512
13579""	-13.2513
▁minix	-13.2515
cols	-13.2516
▁5.0)	-13.2524
7)	-13.2525
▁kle	-13.2537
1[0])	-13.2538
▁floors	-13.2566
[6][6];	-13.2575
▁places	-13.2589
[100004]	-13.2612
▁99999999999	-13.2613
2<=	-13.2629
▁dst	-13.2634
▁nowR	-13.2635
▁250))	-13.2652
_2(	-13.2656
▁toast	-13.2664
▁Ciel	-13.2675
▁rats	-13.2676
▁bestb	-13.2677
)]++;	-13.2677
-10;	-13.2695
▁sumC	-13.27
6"	-13.2702
▁aX	-13.2712
1<=	-13.2717
▁countersum	-13.2718
▁BR	-13.2721
▁halfs	-13.2729
▁remd	-13.2737
▁nol	-13.2743
▁phi	-13.275
5];	-13.2786
▁Maxm	-13.2797
[100009];	-13.2805
▁nap	-13.2807
▁cursum	-13.2811
▁sumM	-13.2818
▁minnum	-13.2835
(5);	-13.2843
[111]	-13.2845
▁15,	-13.2857
▁printC	-13.2865
finished	-13.2876
by	-13.2877
answ	-13.29
[100010	-13.29
ies	-13.2909
▁2}]	-13.292
30	-13.2931
▁200000,	-13.2948
1005	-13.295
▁1050	-13.295
names	-13.2987
[6]++;	-13.2987
▁Ar	-13.299
▁gmin	-13.3009
▁ctf	-13.3011
cha	-13.3014
▁eq	-13.3015
OD	-13.3021
[2002]	-13.3025
[52];	-13.306
▁nul	-13.3082
▁sai	-13.3124
bin	-13.315
▁fth	-13.316
▁sumend	-13.3161
▁lastans	-13.3164
(6)	-13.3168
.#.#.#.|.|	-13.3172
.#.#.|.|	-13.3172
.#.|.|	-13.3172
39	-13.3186
▁bcount	-13.319
posx	-13.3202
▁stc	-13.3218
▁mmm	-13.3219
.#.#.#.#.|.|	-13.3234
▁cei	-13.3276
pres	-13.3304
.#.#.#.#.#.|.|	-13.3311
▁59	-13.3316
inputArr	-13.3325
▁pmin	-13.3356
che	-13.3362
▁3.14159265359;	-13.3363
▁(!((	-13.3374
▁xie	-13.3388
.#.#.|.|)	-13.3398
.#.|.|)	-13.3398
[8	-13.34
-'0'	-13.3421
][2])	-13.3425
.#.#.#.#.|.|)	-13.3444
▁mon	-13.3457
*3	-13.3457
.#.#.#.|.|)	-13.3458
▁ary	-13.3467
-2)	-13.3476
▁concatenate	-13.3503
('0'	-13.3513
17	-13.3513
ncrease	-13.3514
lb	-13.3516
▁bic	-13.3519
▁109	-13.3525
999999999	-13.3536
wl	-13.3548
so	-13.355
miniw	-13.3565
▁kan	-13.3576
▁100000000;	-13.3582
1000000007	-13.3587
▁sig	-13.36
▁pcount	-13.3606
athome	-13.3635
▁curs	-13.3655
▁100000000000	-13.3669
▁2000005	-13.3671
16	-13.3682
ymax	-13.3685
▁1.5	-13.3688
13579	-13.3711
2[1]))	-13.3716
50];	-13.3717
▁5.0	-13.372
▁cX	-13.3729
/3	-13.3753
mmax	-13.3756
ion	-13.3758
dom	-13.3759
▁""1/6	-13.3761
▁2000010	-13.377
▁great	-13.3788
▁fB	-13.3808
/10)	-13.3812
cnta	-13.3817
▁""2/3	-13.3822
▁""5/6	-13.3829
▁""1/3	-13.3831
▁""1/2	-13.3838
▁ceils	-13.384
};	-13.3843
clock	-13.3868
primo	-13.3871
*2-	-13.3874
maxd	-13.3878
tobin	-13.3884
mergeSort	-13.3886
▁minB	-13.3892
▁252	-13.3895
poz	-13.3903
Colours	-13.3903
makeChanges	-13.3903
maxWin	-13.3904
holidays	-13.3904
exam	-13.3904
outfile	-13.3904
welfare	-13.3905
rank	-13.3905
soldier	-13.3905
Blue	-13.3906
interval	-13.3906
ostringstream	-13.3906
stack	-13.3906
anton	-13.3906
have	-13.3906
'\	-13.3906
extra	-13.3906
hitung	-13.3906
cell	-13.3906
matches	-13.3907
remove	-13.3907
shap	-13.3907
most	-13.3909
nCr	-13.3909
free	-13.3909
▁users	-13.3911
infile	-13.3913
use	-13.3916
state	-13.3917
cun	-13.3917
atoi	-13.3919
ecrement	-13.393
cond	-13.393
+1][0]	-13.3931
▁bottle	-13.3934
Awin	-13.3934
sheets	-13.3935
lca	-13.3936
taken	-13.3936
seen	-13.3937
▁Cal	-13.3941
bao	-13.3941
primos	-13.3942
ted	-13.3946
pages	-13.3948
▁truth	-13.3952
rep	-13.3953
xsum	-13.3956
▁distress	-13.3959
mulate	-13.3961
▁alexey	-13.3961
nro	-13.3961
arExponentiation	-13.3962
little	-13.3962
negativo	-13.3962
positivo	-13.3962
urchase	-13.3962
▁compote	-13.3962
▁towhid	-13.3962
▁virus	-13.3962
▁zlicz	-13.3962
("":"")	-13.3962
[1024]	-13.3962
[2100][2100]	-13.3962
[5002]	-13.3962
coloana	-13.3962
dropout	-13.3962
haveSmallLetter	-13.3962
hayColision	-13.3962
rigth	-13.3962
utility	-13.3962
▁(999	-13.3962
▁(9999	-13.3962
▁(99999	-13.3962
▁(999999	-13.3962
▁(9999999	-13.3962
▁(99999999	-13.3962
▁Addition	-13.3962
▁BestCoupon	-13.3962
▁EOF	-13.3962
▁FindString	-13.3962
▁Guest	-13.3962
▁LastevenPos	-13.3962
▁LastoddPos	-13.3962
▁NumOfWords	-13.3962
▁OpenFile	-13.3962
▁Tonya	-13.3962
▁aguinha	-13.3962
▁akhir	-13.3962
▁available	-13.3962
▁battle	-13.3962
▁bilangan	-13.3962
▁boxees	-13.3962
▁bracket	-13.3962
▁certos	-13.3962
▁chatSec	-13.3962
▁costToPay	-13.3962
▁entry	-13.3962
▁floorSqrt	-13.3962
▁foobar	-13.3962
▁garrafas	-13.3962
▁getRank	-13.3962
▁goContest	-13.3962
▁goodCell	-13.3962
▁hidden	-13.3962
▁hoursSpent	-13.3962
▁juntos	-13.3962
▁lEven	-13.3962
▁leafName	-13.3962
▁lemoes	-13.3962
▁limoes	-13.3962
▁maxGive	-13.3962
▁myAss	-13.3962
▁numOfGames	-13.3962
▁numShapes	-13.3962
▁numType	-13.3962
▁passCode	-13.3962
▁puppet	-13.3962
▁qplays	-13.3962
▁quatro	-13.3962
▁rowsDeleted	-13.3962
▁segundos	-13.3962
▁selves	-13.3962
▁sobuj	-13.3962
▁takeStones	-13.3962
▁travel	-13.3962
▁validProblems	-13.3962
▁whiteAns	-13.3962
▁IntToPattern	-13.3962
▁Loses	-13.3962
▁ProduceCode	-13.3962
▁bincode	-13.3962
▁encoded	-13.3962
▁execution	-13.3962
▁getGood	-13.3962
▁greeting	-13.3962
▁numberofm	-13.3962
▁origin	-13.3962
▁sortDes	-13.3962
▁students	-13.3962
▁totalMoves	-13.3962
Distance	-13.3962
wasBest	-13.3962
▁MCM	-13.3962
▁resultadofinal	-13.3962
▁unhack	-13.3962
▁ModPow	-13.3962
▁ichdama	-13.3962
▁returnAbs	-13.3962
[300][300]	-13.3962
llega	-13.3962
▁esclusive	-13.3962
▁capitalize	-13.3962
cifra	-13.3962
▁""0/1	-13.3962
▁bowl	-13.3962
▁batas	-13.3962
▁masuk	-13.3962
▁stuff	-13.3962
_7_4	-13.3962
▁lOdd	-13.3962
▁LoL	-13.3962
▁horiz	-13.3962
▁subStr	-13.3962
▁vvod	-13.3962
[109]	-13.3962
▁myPow	-13.3962
▁getNext	-13.3962
▁""14""	-13.3962
▁firstDay	-13.3962
▁yolo	-13.3962
[301]	-13.3962
▁10000000000000	-13.3962
▁myInt	-13.3962
▁!!(	-13.3962
▁onemore	-13.3962
▁dollar	-13.3963
▁captin	-13.3963
[5001][5001]	-13.3963
ffic	-13.3963
▁route	-13.3963
▁minusSum	-13.3963
▁alexeyI	-13.3963
▁presentes	-13.3963
encont	-13.3963
▁ncandidates	-13.3963
▁Ile	-13.3963
▁colSet	-13.3963
▁lowerCount	-13.3963
▁quant	-13.3964
▁tira	-13.3964
▁3.1415926	-13.3964
+1))/2	-13.3964
▁goGym	-13.3964
▁rowSet	-13.3964
▁modPow	-13.3964
star	-13.3964
▁cityNo	-13.3965
camp	-13.3965
▁kids	-13.3965
▁distressed	-13.3965
operation	-13.3965
▁ctMin	-13.3966
▁finder	-13.3966
▁maxWaste	-13.3966
alre	-13.3967
▁getson	-13.3967
▁99999999999999	-13.3968
limake	-13.3968
▁isRoot	-13.3968
▁maxSwaps	-13.3968
▁numOfNet	-13.3968
▁unfortunate	-13.3968
▁ambos	-13.3968
▁Toats	-13.3968
▁shuwei	-13.3968
▁minPockets	-13.3968
▁100500	-13.3968
isBest	-13.3968
▁cOdd	-13.3968
▁10000000000;	-13.3969
▁shuzi	-13.3969
▁findstep	-13.3969
▁isThere	-13.3969
▁spare	-13.3969
▁listprime	-13.397
▁30005	-13.397
('.'	-13.397
▁indE	-13.3971
▁gcdNum	-13.3971
▁fastmod	-13.3972
▁ctMax	-13.3972
▁accu	-13.3972
▁Last	-13.3972
slices	-13.3973
▁""00""	-13.3973
2[1000009]	-13.3974
Minb	-13.3974
▁twoPower	-13.3975
▁zzz	-13.3975
▁(99	-13.3975
▁Checking	-13.3976
▁1440	-13.3976
▁whole	-13.3977
▁CalculatePrimes	-13.3979
▁downloaded	-13.3979
▁extrema	-13.3979
▁refrence	-13.3979
▁CountOfMoney	-13.3979
▁Orange	-13.3979
▁antisimon	-13.3979
▁arreglo	-13.3979
▁cardOnTable	-13.3979
▁coupons	-13.3979
▁isPalindrome	-13.3979
▁isluck	-13.3979
▁maxSections	-13.3979
▁noldbach	-13.3979
▁vashya	-13.3979
▁isNoldPrime	-13.3979
▁allAreSame	-13.3979
▁isPrimeRoot	-13.3979
▁dependency	-13.3979
▁simon	-13.3979
▁tipo	-13.3979
▁zhu	-13.3979
▁200009	-13.3979
▁digui	-13.3979
▁ggg	-13.398
[3005]	-13.3981
▁Tim	-13.3981
commands	-13.3983
▁clr	-13.3983
▁uion	-13.3985
▁74	-13.3985
▁parameters	-13.3986
▁DY	-13.3986
▁modinv	-13.3987
▁putit	-13.3987
▁signal	-13.3987
▁firstone	-13.3987
▁curMin	-13.3988
waiter	-13.3988
▁nhack	-13.3989
(10.0	-13.3989
ref	-13.3989
▁appr	-13.399
/7	-13.399
('-');	-13.3994
▁ncasos	-13.3995
cot	-13.3996
▁minsq	-13.3996
▁zong	-13.3997
mirrorup	-13.3999
[250]	-13.3999
▁sumclock	-13.4
▁prazn	-13.4
48	-13.4
▁candies	-13.4001
mirrorright	-13.4002
▁nOdd	-13.4002
▁links	-13.4002
▁flower	-13.4003
zzzzzzzzzzzz	-13.4003
▁Dis	-13.4003
▁bark	-13.4005
▁5050	-13.4006
▁bitch	-13.4007
▁""\0""	-13.4009
clo	-13.4009
▁obj	-13.401
▁self	-13.4012
▁busy	-13.4014
▁msh	-13.4015
▁turned	-13.4015
▁username	-13.4016
stick	-13.4018
--""	-13.4019
▁divN	-13.4019
▁wtf	-13.4019
minP	-13.4021
▁llin	-13.4021
▁gover	-13.4023
▁mnind	-13.4023
asc	-13.4024
▁DX	-13.4027
▁haha	-13.4031
▁curY	-13.4032
▁miss	-13.4035
▁Mtime	-13.4036
▁highnum	-13.4036
▁Mid	-13.4039
▁sho	-13.4042
▁,0,	-13.4042
128	-13.4045
▁pasos	-13.4046
▁81	-13.4046
▁270	-13.4048
fim	-13.4052
maxlen	-13.4053
bestIndex	-13.4056
▁hand	-13.4058
▁contM	-13.4061
▁dasha	-13.4063
▁vert	-13.4068
▁nph	-13.4071
▁hc	-13.4071
▁-1000000007	-13.4072
▁upset	-13.4072
▁tsd	-13.4074
▁won	-13.4075
▁flas	-13.4081
▁childs	-13.4084
▁lste	-13.4086
▁casos	-13.4087
▁our	-13.4089
▁curX	-13.4091
▁dish	-13.4091
▁minstep	-13.4093
▁dash	-13.4095
nce	-13.41
▁(999999999	-13.41
▁doll	-13.4104
▁coA	-13.4109
▁sifr	-13.4111
▁mystr	-13.4111
▁listsize	-13.4129
▁TE	-13.4129
▁generat	-13.4135
say	-13.4138
▁leafeon	-13.4138
▁tran	-13.4139
▁95	-13.4139
[1050];	-13.4144
▁29;	-13.4145
▁tplayers	-13.4154
ncrement	-13.4159
▁bpb	-13.4171
▁chal	-13.4173
▁nbulb	-13.4181
▁dots	-13.4188
tar	-13.4189
▁codes	-13.4191
▁gm	-13.4197
dib	-13.421
▁ssss	-13.4221
1*	-13.4221
ey	-13.4225
▁2]);	-13.4225
▁'=')	-13.4227
▁pct	-13.423
▁ppp	-13.4233
▁0.5);	-13.4236
▁99)	-13.4243
▁TB	-13.425
▁cntup	-13.4251
ur	-13.4253
▁verif	-13.4257
[100002]	-13.4258
▁firstw	-13.4261
▁printsp	-13.4274
▁parta	-13.4275
▁colume	-13.4275
▁samex	-13.4284
]]]]	-13.429
slow	-13.4292
▁bui	-13.4296
0+	-13.4299
▁reversed	-13.43
▁Go	-13.4302
▁slt	-13.4303
1009	-13.4305
▁En	-13.4312
▁ptot	-13.4327
▁1000000)	-13.4328
686]	-13.4331
▁vid	-13.4338
▁islower	-13.4352
▁2500	-13.4362
func	-13.4363
▁stab	-13.4363
▁swaps	-13.4368
▁writes	-13.4371
nome	-13.4392
,./"	-13.4395
▁Do	-13.4402
[3000];	-13.4402
...	-13.4404
▁pres	-13.4405
▁stg	-13.4415
▁disy	-13.4421
▁SS	-13.4436
▁UL	-13.4436
▁isvalid	-13.4439
▁cases	-13.4449
lens	-13.445
▁auxr	-13.4455
0],	-13.4459
▁mxl	-13.4463
If	-13.4485
▁wei	-13.4491
arra	-13.4493
▁indO	-13.4503
nary	-13.4503
=500	-13.4504
▁distr	-13.4506
▁TA	-13.4526
▁chat	-13.4531
200	-13.454
▁mpp	-13.4542
'1'	-13.4545
bestw	-13.4584
▁DR	-13.4587
▁mceil	-13.4616
▁bY	-13.4618
▁'/')	-13.4654
ica	-13.4657
dia	-13.4658
(3*	-13.4717
))))	-13.4718
[2000]	-13.4747
▁maxindex	-13.4749
▁1000006;	-13.4755
[5000];	-13.4758
▁notes	-13.4781
▁fq	-13.4789
▁tott	-13.4789
[2*	-13.4789
▁tota	-13.479
selectionSorting	-13.4812
▁idxb	-13.4819
▁56	-13.482
▁bac	-13.4837
300005	-13.4841
sumA	-13.4845
qr	-13.4852
▁333	-13.4866
▁2.0;	-13.4883
▁mmp	-13.4928
md	-13.4936
lett	-13.4942
▁squares	-13.4956
moda	-13.4976
▁62;	-13.4977
▁131	-13.4984
[2002];	-13.4996
▁rowe	-13.5028
[501][501];	-13.504
▁40;	-13.5043
sumb	-13.5052
▁jmn	-13.5059
000000	-13.506
▁uu	-13.5062
are	-13.5077
▁RE	-13.5105
▁nut	-13.5108
Cb	-13.5111
▁2*(	-13.5116
pd	-13.5161
8"	-13.5164
ql	-13.5173
▁',0	-13.5174
▁tmpA	-13.5178
▁28)	-13.5202
▁""(""	-13.5217
▁58	-13.5218
cntr	-13.522
lena	-13.5229
.|.|	-13.523
[0][1],	-13.526
▁tempsum	-13.5264
▁modu	-13.5272
een	-13.5276
▁qsort	-13.5289
▁ob	-13.5363
[10010]	-13.5369
▁scores	-13.5381
▁1000002	-13.5385
▁integ	-13.5393
▁resL	-13.5407
tempm	-13.5414
(""4	-13.5422
-1)/	-13.5431
2007	-13.5446
▁numL	-13.5461
▁300;	-13.5481
▁pu	-13.549
[1005][1005]	-13.5493
10)	-13.5494
▁301	-13.5552
[1][0],	-13.5571
▁his	-13.5574
((8	-13.5584
printC	-13.5597
tm	-13.561
bulb	-13.5616
(100	-13.5636
▁ou	-13.5651
▁fit	-13.5655
]='	-13.5658
cz	-13.5664
▁mys	-13.5669
▁""-"")	-13.5676
gna	-13.5693
▁(-1))	-13.5701
-1"	-13.5724
tNum	-13.573
▁100000)	-13.5823
▁cos	-13.5828
▁atan	-13.583
factor	-13.5845
[210];	-13.5855
▁10.0	-13.5863
sheet	-13.5867
acum	-13.5876
spec	-13.5884
large	-13.5896
terkecil	-13.59
needPrezent	-13.59
taka	-13.59
like	-13.59
dasha	-13.5902
update	-13.5902
combSort	-13.5902
stone	-13.5902
firstPointer	-13.5903
menor	-13.5904
trunc	-13.5904
Move	-13.5904
myString	-13.5904
cities	-13.5904
shapes	-13.5904
Yellow	-13.5905
before	-13.5905
deque	-13.5905
order	-13.5905
contiguous	-13.5905
pole	-13.5906
hasil	-13.5906
[100100]	-13.5906
priority	-13.5906
round	-13.5906
password	-13.5906
biaoji	-13.5906
only	-13.5907
initialize	-13.5907
mima	-13.5908
inclusive	-13.5908
maxsec	-13.5908
stud	-13.5909
tuu	-13.5911
org	-13.5914
height	-13.5915
sig	-13.5916
bul	-13.5919
Statement	-13.5924
xorr	-13.593
LIM	-13.5934
reopen	-13.5937
=100000	-13.594
▁44	-13.5944
stat	-13.5947
▁2501	-13.5948
lights	-13.5951
15);	-13.5952
','	-13.5955
▁judg	-13.596
nama	-13.5961
▁quick	-13.5962
Common	-13.5962
FFFFFFF	-13.5962
[365]	-13.5962
totalLimon	-13.5962
▁MODPRIMA	-13.5962
▁NegOO	-13.5962
▁Oddz	-13.5962
▁StaionsDistance	-13.5962
▁bByGame	-13.5962
▁bnyak	-13.5962
▁cEven	-13.5962
▁diffuclty	-13.5962
▁inclusve	-13.5962
▁reallyans	-13.5962
▁smjeroviX	-13.5962
▁smjeroviY	-13.5962
▁timeWalk	-13.5962
[605]	-13.5962
▁totalSalt	-13.5962
totalMili	-13.5962
lphabet	-13.5962
▁again	-13.5962
▁calculati	-13.5962
▁hold	-13.5962
▁mulMod	-13.5962
[10000005];	-13.5962
▁upward	-13.5962
▁abort	-13.5962
▁precompute	-13.5962
▁stolen	-13.5962
▁Boolean	-13.5962
▁exclusi	-13.5962
▁Players	-13.5963
▁3))	-13.5963
▁minGas	-13.5963
[150][150]	-13.5964
▁Rem	-13.5964
[1003]	-13.5965
=100005	-13.5966
cluding	-13.5968
▁200007	-13.5968
▁selection	-13.597
▁kachok	-13.597
▁availabe	-13.597
▁banknotes	-13.597
▁checkDegenerate	-13.597
▁curAng	-13.597
▁handels	-13.597
▁haveBigLetter	-13.597
▁isComposite	-13.597
▁isLesson	-13.597
▁isSubstring	-13.597
▁kpyto	-13.597
▁noOfOranges	-13.597
▁numMedal	-13.597
▁numberOfInputs	-13.597
▁numberOfLucky	-13.597
▁reshala	-13.597
▁shouldContinue	-13.597
▁spicifier	-13.597
▁tSinOven	-13.597
▁tempChar	-13.597
▁tempRange	-13.597
▁totDist	-13.597
▁yippee	-13.597
▁Answers	-13.597
▁Team	-13.597
▁angleofpolygon	-13.597
▁death	-13.597
▁repeat	-13.597
▁TOOG	-13.597
▁charArray	-13.597
▁haSh	-13.597
▁wynw	-13.597
▁1000.00	-13.597
▁deep	-13.597
▁camino	-13.597
▁yeah	-13.597
▁angel	-13.597
▁freefuel	-13.597
▁kString	-13.597
▁triangleNumber	-13.597
▁cycleSort	-13.597
▁resultado	-13.597
▁smallAns	-13.597
▁haveNum	-13.597
▁matrex	-13.597
▁actions	-13.597
▁Cost	-13.597
▁trash	-13.597
▁hack	-13.597
▁Temp	-13.5971
▁linie	-13.5971
▁kiek	-13.5971
▁mltotal	-13.5971
▁upperCount	-13.5971
▁Petya	-13.5971
▁Inf	-13.5971
testCnt	-13.5972
▁flip	-13.5973
[0]+	-13.5975
▁vict	-13.5975
▁Prv	-13.5975
▁""11111""	-13.5975
-2*	-13.5976
nGas	-13.5977
▁fourcount	-13.5979
unitTime	-13.598
▁frap	-13.5982
▁""144""	-13.5983
▁choice	-13.5983
▁hutch	-13.5983
▁source	-13.5983
▁tstudy	-13.5983
▁declara	-13.5986
▁kata	-13.5987
maxval	-13.5987
area	-13.5987
▁365	-13.5987
▁toutt	-13.5989
▁killed	-13.599
▁mixx	-13.5992
▁suit	-13.5993
▁evaluate	-13.5997
▁employee	-13.5997
▁fastExp	-13.5997
▁qingkuang	-13.5997
▁setTree	-13.5997
▁resolver	-13.5997
▁peso	-13.5997
▁zeroNum	-13.5998
▁180.0	-13.5999
▁levl	-13.6
(2)))	-13.6
▁resul	-13.6001
▁poped	-13.6001
▁quantity	-13.6005
▁highid	-13.6005
▁basi	-13.6007
▁tempCount	-13.601
=""0""	-13.6012
frest	-13.6013
put	-13.6018
7;	-13.6018
▁3010	-13.6019
▁dick	-13.602
▁4*(	-13.602
▁needPrezent	-13.6024
/2)*	-13.6024
▁terkecil	-13.6024
▁rope	-13.6025
▁like	-13.6026
▁medal	-13.6026
▁sod	-13.6028
▁passed	-13.6031
▁65]++;	-13.6032
▁5010	-13.6035
+7	-13.6036
▁144)	-13.6049
pal	-13.6056
▁hist	-13.6059
▁coB	-13.6061
nam	-13.6065
▁yello	-13.6065
▁tuu	-13.607
*4	-13.6075
▁BWBWBWBW	-13.6081
▁WBWBWBWB	-13.6081
asm	-13.6082
(210)	-13.6083
▁nextprev	-13.6094
▁chocs	-13.6101
/2,	-13.6106
▁unin	-13.6108
▁tml	-13.6108
]-'0'))	-13.6114
MAXT	-13.612
niz	-13.6128
*-1	-13.6128
▁samey	-13.6137
may	-13.6138
▁acef	-13.6139
▁uno	-13.6144
-1+	-13.6144
Gdrink	-13.6158
(100001	-13.6169
▁[101][101]	-13.6173
▁ost	-13.6179
▁allB	-13.6182
[100000][2]	-13.6185
17;	-13.6195
▁TOWARDS	-13.6198
tdiff	-13.6209
▁0.5)	-13.621
▁1200	-13.621
▁sumdn	-13.6213
hile	-13.6218
▁rots	-13.6228
[200009];	-13.6235
▁125	-13.6237
2]++;	-13.6246
▁olds	-13.6252
▁anti	-13.6252
1"")	-13.6252
▁vpoints	-13.6271
▁exl	-13.6273
▁sumtp	-13.6274
▁601	-13.6275
▁teams	-13.6287
.|.|)""	-13.6297
LOG	-13.6305
▁gol	-13.6308
pl	-13.6309
scorea	-13.6316
""))	-13.6317
acc	-13.6334
▁ifprime	-13.6343
▁vst	-13.6344
***	-13.6363
qq	-13.6364
▁2222;	-13.6365
▁ult	-13.6369
▁2001,	-13.6375
▁'{')	-13.638
▁99999;	-13.638
▁allA	-13.6382
▁cpr	-13.6393
[32]	-13.6399
▁'0']++;	-13.6403
▁BS	-13.6416
suffix	-13.6427
11111"	-13.6429
cases	-13.643
▁96)	-13.6434
▁tes	-13.6434
▁impossible	-13.6437
[1007]	-13.6438
▁just	-13.6446
[11][11]	-13.6459
▁30001	-13.6459
pt	-13.646
▁hd	-13.6468
▁arrB	-13.6474
▁cstart	-13.649
pe	-13.6496
▁exists	-13.6508
[7])	-13.6512
2[0]])	-13.6521
▁vii	-13.6555
te	-13.6559
▁powm	-13.6563
▁100003	-13.6566
▁Pr	-13.6566
▁999999999;	-13.6577
▁uc	-13.6579
10,	-13.6591
2));	-13.6603
su	-13.6604
▁numW	-13.6605
▁17)	-13.6623
[111111];	-13.6625
[30010];	-13.6625
OW	-13.6637
uu	-13.6656
▁ranki	-13.6658
kh	-13.6683
▁newS	-13.6715
)/10	-13.6723
xmax	-13.6723
valido	-13.6742
▁taka	-13.675
▁statements	-13.6799
▁nvotes	-13.6799
[2][1]=	-13.6803
chr	-13.6804
]]++	-13.6817
3005	-13.6818
▁mpoints	-13.682
AL	-13.6831
▁10001;	-13.6846
-12	-13.6859
▁removed	-13.6891
▁nil	-13.6897
50	-13.6899
tri	-13.6899
>=0	-13.6903
▁999999;	-13.6906
--"")	-13.6914
[3][2]	-13.6921
[0][2])	-13.693
[103];	-13.6945
reading	-13.6963
2=""	-13.6976
[1002];	-13.6999
ive	-13.7009
(0.0)	-13.7052
[1000001]	-13.7061
▁maxim	-13.7076
resp	-13.712
▁modl	-13.7191
▁mar	-13.7209
▁'0')))	-13.7225
204	-13.7246
[1]+	-13.7293
▁20);	-13.7306
-'	-13.731
▁vB	-13.7339
[17]	-13.7352
▁defined	-13.7354
{};	-13.7361
▁vocal	-13.737
▁ansB	-13.7392
▁361	-13.7408
▁115	-13.7431
+9	-13.7438
▁1.0);	-13.7446
▁2.0))	-13.7463
▁2)))	-13.7463
▁100);	-13.7491
[5001];	-13.7513
▁primesize	-13.7514
▁firstb	-13.7567
hb	-13.7572
▁disx	-13.7595
▁epi	-13.7598
▁100000000000000	-13.7617
#.#.#.#.|.|)	-13.7629
▁mgcd	-13.7633
[1][1]]	-13.7683
ation	-13.7684
▁fst	-13.7688
000000000000000	-13.7695
idxa	-13.7731
anc	-13.7758
▁fr	-13.778
▁""8	-13.7822
▁bX	-13.7847
sta	-13.7854
▁minD	-13.7899
▁divid	-13.7979
[31];	-13.8012
cos	-13.8014
chk	-13.8015
we	-13.8093
[2010];	-13.8108
leftnum	-13.814
maxrow	-13.8186
Let	-13.8193
▁9999999999;	-13.8205
[21]	-13.8206
2005][2005];	-13.8207
(10000	-13.8215
55];	-13.8258
0));	-13.8269
6)	-13.8292
8979323846264338	-13.8299
hela	-13.8311
eger	-13.8317
=10000	-13.8327
▁alphabetic	-13.8338
▁gcdd	-13.8339
.000)	-13.8342
chore	-13.8343
▁555	-13.8365
+1])	-13.8365
rst	-13.8367
crement	-13.8381
replace	-13.8387
declar	-13.8387
]]--	-13.8389
distanc	-13.8393
▁'1'))	-13.8396
merge	-13.8397
paramet	-13.8398
onth	-13.84
buf	-13.84
clusive	-13.8401
candies	-13.8401
nOdd	-13.8402
tabuleiro	-13.8402
bark	-13.8403
dhurr	-13.8403
polje	-13.8403
guiones	-13.8403
feature	-13.8403
relax	-13.8403
270	-13.8403
awal	-13.8404
zuo	-13.8404
finishx	-13.8404
Green	-13.8404
finishy	-13.8404
PhoneArray	-13.8404
cube	-13.8404
mayor	-13.8405
posibles	-13.8405
lane	-13.8405
Chess	-13.8405
mininc	-13.8405
huruf	-13.8405
mapper	-13.8405
boox	-13.8405
busca	-13.8405
smallest	-13.8405
enemy	-13.8405
Alex	-13.8405
who	-13.8405
isvalid	-13.8406
biao	-13.8406
remaining	-13.8406
▁10004	-13.8406
static	-13.8406
divisor	-13.8406
write	-13.8406
binary	-13.8406
bitwise	-13.8406
qua	-13.8407
year	-13.8407
{0};	-13.8407
isFound	-13.8407
constant	-13.8409
gover	-13.841
problems	-13.841
▁mxd	-13.8411
bisa	-13.8411
bills	-13.8412
perm	-13.8413
maxLen	-13.8414
weight	-13.8415
sisa	-13.8417
isit	-13.8417
Str	-13.8418
exit	-13.8418
!"")	-13.8419
▁14;	-13.8419
coty	-13.8423
Pic	-13.8423
Mid	-13.8425
▁parameter	-13.8425
▁stair	-13.8427
[1002	-13.8427
▁friend	-13.8428
prod	-13.8431
mole	-13.8434
was	-13.8435
pwr	-13.8437
acumx	-13.8441
vest	-13.8442
bob	-13.8445
uiwen	-13.8451
INE	-13.8453
lev	-13.8453
▁9999999999999	-13.8454
▁group	-13.8456
olute	-13.846
(2002)	-13.846
obe	-13.846
wise	-13.8462
▁increa	-13.8462
alidity	-13.8462
INP	-13.8462
ribbon	-13.8462
▁binPow	-13.8462
▁isPowerOfTwo	-13.8462
▁isRow	-13.8462
▁penalty	-13.8462
▁somebodytrue	-13.8462
,31,30,31,30,31	-13.8462
2384626433832795	-13.8462
524289	-13.8462
UDGE	-13.8462
[1440]	-13.8462
enough	-13.8462
toastFromBottle	-13.8462
▁2000000009	-13.8462
▁300300	-13.8462
▁888888	-13.8462
▁AppEnd	-13.8462
▁DisplayBoard	-13.8462
▁Euler	-13.8462
▁Genawy	-13.8462
▁Numberofstones	-13.8462
▁Sieve	-13.8462
▁abajo	-13.8462
▁binarySearch	-13.8462
▁countSubseq	-13.8462
▁customerTime	-13.8462
▁encender	-13.8462
▁euclides	-13.8462
▁fillSides	-13.8462
▁getPrime	-13.8462
▁getSoroban	-13.8462
▁goEither	-13.8462
▁imprimir	-13.8462
▁intToString	-13.8462
▁inzlition	-13.8462
▁isMNextPrime	-13.8462
▁lifestyle	-13.8462
▁makeAString	-13.8462
▁middlePoint	-13.8462
▁minCoinsToWin	-13.8462
▁missingTemps	-13.8462
▁modInverse	-13.8462
▁mostrar	-13.8462
▁numOfLight	-13.8462
▁pichone	-13.8462
▁preprocess	-13.8462
▁prework	-13.8462
▁primeFactors	-13.8462
▁rearorder	-13.8462
▁salida	-13.8462
▁solveTest	-13.8462
▁sumaEnOtraBase	-13.8462
▁termination	-13.8462
▁toLow	-13.8462
▁whitespace	-13.8462
[5000000]	-13.8462
isFace	-13.8462
magical	-13.8462
significant	-13.8462
▁GetNext	-13.8462
▁INFTY	-13.8462
▁getDis	-13.8462
▁isSubSequence	-13.8462
▁lexMaxSubseq	-13.8462
▁removals	-13.8462
▁symbol	-13.8462
▁tempName	-13.8462
▁toastDueToSalt	-13.8462
[100006]	-13.8462
[32][32]	-13.8462
▁Seive	-13.8462
▁Work	-13.8462
▁cookie	-13.8462
▁esPalindromo	-13.8462
▁getNumbers	-13.8462
▁getsolved	-13.8462
▁maxsecction	-13.8462
▁nextBYear	-13.8462
▁prifac	-13.8462
▁worth	-13.8462
codechef	-13.8462
epsilon	-13.8462
subsequence	-13.8462
▁-5000000	-13.8462
▁doesIt	-13.8462
▁snack	-13.8462
▁stderr	-13.8462
[30005][25]	-13.8462
▁Divs	-13.8462
▁elemens	-13.8462
Roll	-13.8462
[200025]	-13.8462
▁113}	-13.8462
▁euqal	-13.8462
▁exlusive	-13.8462
▁printString	-13.8462
(1.5)	-13.8462
▁getResult	-13.8462
4409	-13.8462
▁fstexp	-13.8462
▁angka	-13.8462
factores	-13.8462
OUT	-13.8462
+2)*(	-13.8462
▁cheng	-13.8462
▁recurse	-13.8462
▁-11111111	-13.8462
puter	-13.8462
▁cheak	-13.8462
[600]	-13.8462
▁myMap	-13.8463
▁freac	-13.8463
▁reala	-13.8463
=1000000000	-13.8463
mnth	-13.8463
▁CountNum	-13.8463
▁isOdd	-13.8463
▁doIt	-13.8463
*60+	-13.8463
▁512}	-13.8463
[310]	-13.8463
▁reversestack	-13.8463
▁resetArr	-13.8463
ameter	-13.8463
▁RPS	-13.8463
popcountll	-13.8463
▁mdpower	-13.8463
▁parse	-13.8463
[30001]	-13.8464
▁preorder	-13.8464
▁empt	-13.8464
▁1000000007)*(	-13.8464
▁tiles	-13.8464
▁writing	-13.8464
sPer	-13.8464
[30005]	-13.8464
▁numpacks	-13.8464
▁precomp	-13.8464
shelb	-13.8465
▁minjumps	-13.8465
▁precalc	-13.8465
▁256}	-13.8465
tuple	-13.8466
[120][120]	-13.8466
▁zzzz	-13.8466
▁upperbound	-13.8466
[4000	-13.8466
Null	-13.8467
-2)*	-13.8467
▁baad	-13.8467
▁200500	-13.8467
▁alter	-13.8467
+1)/2)-	-13.8467
▁mygets	-13.8468
▁cena	-13.8468
memc	-13.8468
▁frq	-13.8468
▁marge	-13.8468
illion	-13.8469
▁getlist	-13.8469
,./""}	-13.8469
=1000000009	-13.8469
▁bshead	-13.847
▁raiz	-13.847
ABC	-13.8471
▁-100000000	-13.8472
▁myFile	-13.8472
▁Operation	-13.8472
▁borne	-13.8472
▁normalize	-13.8472
▁prawa	-13.8472
▁under	-13.8472
▁lewa	-13.8472
demy	-13.8473
5+5	-13.8474
▁cclockwise	-13.8474
▁Main	-13.8474
+2*	-13.8475
/1000	-13.8475
medals	-13.8477
[3][201]	-13.8478
▁qtd	-13.8478
▁mypow	-13.8479
▁units	-13.8479
▁1000+10	-13.8479
▁rever	-13.8479
▁avg	-13.848
▁declar	-13.8481
▁dian	-13.8482
▁(24	-13.8482
▁powermod	-13.8482
▁mnts	-13.8483
▁changeIndex	-13.8483
prim	-13.8483
▁putL	-13.8484
ecz	-13.8484
▁flase	-13.8484
▁101000	-13.8484
reset	-13.8484
▁createMap	-13.8485
▁shai	-13.8485
▁0}}	-13.8486
[101][11]	-13.8486
Cmp	-13.8487
▁rotatez	-13.8488
▁allocat	-13.8488
sym	-13.8488
[7-	-13.8489
▁BigMod	-13.849
▁buttons	-13.849
▁seleccion	-13.849
▁insercion	-13.849
▁isyuan	-13.849
▁gems	-13.849
▁imulai	-13.849
▁wynb	-13.849
202000	-13.849
▁hcf	-13.8491
▁html	-13.8491
▁cyka	-13.8491
less	-13.8492
▁exrt	-13.8492
▁colour	-13.8493
▁10000007	-13.8493
▁couner	-13.8493
▁dodec	-13.8493
))))))	-13.8494
[16]	-13.8494
▁thislen	-13.8495
▁2.00	-13.8495
brr	-13.8496
▁1000000004	-13.8497
▁oldstr	-13.8498
▁putR	-13.8499
games	-13.85
▁functi	-13.85
▁newpage	-13.85
[30][30]	-13.8501
▁sqrs	-13.8501
*2+1	-13.8505
)('	-13.8506
mult	-13.8507
▁(1000000	-13.851
▁dec	-13.851
mask	-13.8511
Statements	-13.8512
minval	-13.8513
▁qbe	-13.8515
hangx	-13.8515
dama	-13.8516
▁15}	-13.8516
▁minDif	-13.8517
▁86400-	-13.8517
ever	-13.8518
)*8	-13.8518
▁smallans	-13.8519
ratios	-13.852
▁rAmount	-13.8522
▁isgreater	-13.8524
▁IN	-13.8525
(1000);	-13.8526
▁paramet	-13.8526
▁updt	-13.8534
▁andaw	-13.8538
▁xian	-13.8538
▁getit	-13.8539
(3-	-13.8542
▁ispalin	-13.8543
▁moveS	-13.8548
minw	-13.8549
▁maxima	-13.8553
Maxm	-13.8554
fir	-13.8554
▁minCoins	-13.8556
▁minson	-13.8563
▁link	-13.8564
▁rps	-13.8565
tables	-13.8566
discounts	-13.8567
▁oct	-13.8568
prep	-13.8574
cmax	-13.8575
maxindex	-13.8581
▁rotatey	-13.8583
▁bsend	-13.8585
men	-13.8589
done	-13.8589
▁getB	-13.8592
demx	-13.8592
▁GT	-13.8594
▁9999999;	-13.8597
▁(3*	-13.8597
▁ispal	-13.8598
[24	-13.8599
▁trans	-13.86
▁minima	-13.8603
▁144	-13.8608
▁dics	-13.8612
tol	-13.8612
▁320	-13.8612
▁minstring	-13.8615
modl	-13.8617
▁naj	-13.8622
pan	-13.8628
uno	-13.8631
▁10007	-13.8634
▁getmax	-13.8649
▁-999999999	-13.8651
tim	-13.8652
DP	-13.8654
▁50000	-13.8656
▁facto	-13.8658
▁setbit	-13.8659
▁155	-13.8661
sumx	-13.8666
did	-13.8666
']/2	-13.8667
▁2.000	-13.8671
▁countstep	-13.8677
)(8	-13.8681
▁digitsum	-13.8684
▁1000009	-13.8687
ke	-13.8687
▁spc	-13.8688
▁ttt	-13.869
4999	-13.8693
[4]+	-13.8695
subs	-13.8699
▁sqr	-13.8708
▁-9999999999	-13.8711
▁MAXB	-13.8721
elemento	-13.8728
▁pairsort	-13.8731
>=1	-13.8732
▁Total	-13.8738
0))	-13.8739
▁Finite	-13.8757
▁qry	-13.8757
'*')	-13.8758
BB	-13.876
▁vsz	-13.8777
6000000	-13.8782
▁512	-13.8785
▁close	-13.8792
▁rotatex	-13.8793
▁minvalue	-13.8793
▁10.0)	-13.88
bic	-13.8802
▁502	-13.8803
maxcount	-13.8808
▁3000001	-13.881
*1.0)	-13.8814
▁icos	-13.8828
band	-13.8831
▁decimals	-13.8838
kind	-13.884
686	-13.8857
cal	-13.8858
tu	-13.8859
▁'8')))	-13.8859
▁130	-13.8862
isv	-13.8866
[2010]	-13.8883
▁510	-13.8889
'3'	-13.889
▁1110	-13.8898
▁26-	-13.891
[102][102];	-13.8913
▁2000010;	-13.8915
((*	-13.8916
▁100000000000;	-13.8918
sam	-13.893
0);	-13.895
nowp	-13.897
])));	-13.8973
-1]-1	-13.8995
80]	-13.9007
tenth	-13.9007
▁evn	-13.9012
maxnum	-13.9021
▁99999,	-13.9038
cntc	-13.9052
▁halfplus	-13.9064
5],	-13.9067
ask	-13.9068
▁250.	-13.9069
▁86	-13.9071
((3*	-13.9077
RS	-13.9089
▁summax	-13.9101
▁27;	-13.9106
trig	-13.911
_2;	-13.911
-1][2]	-13.9128
▁""..|""	-13.9134
wins	-13.9136
▁6][	-13.9136
▁diy	-13.9137
▁1000003)	-13.914
▁91	-13.9141
▁endloop	-13.9141
▁1000007;	-13.9172
-1]<	-13.9179
sumw	-13.9183
▁3.141592	-13.9196
[7]++;	-13.9198
nex	-13.9212
▁concatenat	-13.9225
idxb	-13.9234
▁kir	-13.9241
▁-99999999	-13.9243
▁idxa	-13.9262
▁[3][3]	-13.9268
▁jpar	-13.9279
[4][5]	-13.9279
[2]+	-13.9289
▁310	-13.929
3.0	-13.9292
▁46	-13.931
▁Olya	-13.9315
▁Nikita	-13.9317
▁100002;	-13.9318
▁Danil	-13.9319
▁3}	-13.9324
errl	-13.9327
▁andab	-13.9338
/2"	-13.9338
ug	-13.9361
lc	-13.9363
Red	-13.937
]-'0')	-13.9376
Maxn	-13.9395
▁.)	-13.9401
▁issquare	-13.9429
▁hr	-13.9447
▁settings	-13.945
▁6-	-13.9487
/2]	-13.9499
▁car	-13.9499
▁files	-13.95
180	-13.9527
▁1007;	-13.9531
[1500];	-13.9535
▁jia	-13.9535
0000000	-13.9536
]))))	-13.954
1=0,	-13.9549
[1004]	-13.9564
[107]	-13.9564
▁ooi	-13.9572
sible	-13.958
▁jmx	-13.9634
▁2501]	-13.9685
[4][4]	-13.9728
[501][501]	-13.9783
▁1009	-13.9797
lst	-13.9804
▁Cube	-13.9815
▁180))	-13.9823
▁Octahedron	-13.9829
▁Dodecahedron	-13.9832
▁Tetrahedron	-13.9832
fit	-13.9847
disC	-13.9863
▁tables	-13.988
97	-13.9914
ting	-13.9952
▁sim	-13.9975
removeDuplicates	-14.0009
tttt	-14.0024
arx	-14.0026
1]++;	-14.0045
3)+	-14.0069
nas	-14.0116
[99]	-14.0141
▁'&'	-14.0161
▁Ad	-14.0166
▁selectionSort	-14.0174
+10	-14.0235
[103]	-14.0248
rtion	-14.0263
▁zw	-14.0306
1[15]	-14.0306
der	-14.0312
▁Black	-14.0313
▁White	-14.0314
2[100005];	-14.0318
]*(	-14.0322
)+(	-14.0339
++"")	-14.0356
minstring	-14.036
0.0	-14.0366
bst	-14.0389
▁400;	-14.0411
ible	-14.0429
/6	-14.0431
▁47;	-14.0442
maxr	-14.0486
[2]-	-14.0487
▁dix	-14.0508
ifprime	-14.0525
▁Increme	-14.054
▁((5	-14.055
▁17;	-14.0609
minr	-14.0621
=7	-14.0671
fLL	-14.0693
8];	-14.0742
summ	-14.0751
())])]	-14.0753
▁205;	-14.0753
nik	-14.0782
fer	-14.0789
▁Ann	-14.0802
bo	-14.0817
10]	-14.0871
▁newM	-14.0879
▁replace	-14.089
endl	-14.0911
▁minu	-14.0933
[200007];	-14.0933
▁150000	-14.0951
=10001	-14.0955
▁""1"")	-14.0984
[100004];	-14.1023
10);	-14.1026
*2)	-14.104
▁30000	-14.1042
▁99999999999;	-14.1047
ize	-14.106
[305]	-14.1061
2000100	-14.1091
[300300]	-14.1106
sumthing	-14.113
counta	-14.1208
▁16;	-14.121
])))	-14.1215
sq	-14.1223
[3][1]	-14.1232
30,	-14.1236
ger	-14.1238
bule	-14.1239
▁5000;	-14.1327
%2	-14.1338
nteger	-14.1356
(5)	-14.1358
shu	-14.1382
]>=	-14.1405
.|.|)	-14.1441
ymin	-14.1442
▁3]]	-14.1461
▁0,0,	-14.1473
999];	-14.1485
ather	-14.1497
▁300001	-14.1526
*2-1	-14.1545
[400	-14.156
erator	-14.1564
ally	-14.1571
][3];	-14.1572
▁gen	-14.1582
[1000000	-14.1583
ats	-14.1591
tep	-14.16
uts	-14.1614
(9);	-14.1638
palin	-14.1638
▁bla	-14.1644
Int	-14.1649
?	-14.1652
][8]	-14.1653
)]=	-14.1658
[20	-14.1665
(1000000	-14.1677
caso	-14.1679
removeDuplicate	-14.1686
teps	-14.1687
alph	-14.1692
mov	-14.1693
▁6666	-14.1699
amount	-14.1699
link	-14.1704
▁1000);	-14.1706
cpy	-14.1725
1001	-14.1726
tetr	-14.173
phack	-14.1731
'('	-14.1733
employee	-14.1734
setTree	-14.1734
evaluate	-14.1734
qingkuang	-14.1734
fastExp	-14.1734
resolver	-14.1734
peso	-14.1734
zeroNum	-14.1734
mainvector	-14.1736
schedule	-14.1736
secondPointer	-14.1736
question	-14.1736
highid	-14.1736
setIt	-14.1736
toast	-14.1736
sideMoves	-14.1737
toPurchase	-14.1737
verticalMoves	-14.1737
comando	-14.1737
vertical	-14.1737
hush	-14.1737
util	-14.1737
margesort	-14.1737
dryer	-14.1737
blep	-14.1738
rgt	-14.1738
aexc	-14.1738
aramic	-14.1738
ivmind	-14.1738
esPrimo	-14.1738
menorW	-14.1738
distinct	-14.1738
strength	-14.1738
MashaCount	-14.1738
Primes	-14.1738
spyke	-14.1738
spykeId	-14.1738
ciel	-14.1738
wrong	-14.1738
profits	-14.1738
posiciones	-14.1738
orgStr	-14.1738
yelo	-14.1738
rides	-14.1739
Data	-14.1739
linha	-14.1739
people	-14.1739
workTime	-14.1739
tipe	-14.1739
difference	-14.1739
choose	-14.1739
previous	-14.1739
pick	-14.1739
toggle	-14.1739
shift	-14.1739
998244353	-14.174
satu	-14.174
contador	-14.174
rlmoves	-14.174
leaf	-14.174
dimension	-14.174
menorB	-14.174
chris	-14.174
que	-14.174
Freq	-14.1741
tank	-14.1741
army	-14.1742
Ids	-14.1743
0.5	-14.1743
forward	-14.1744
both	-14.1744
take	-14.1747
pangkat	-14.1748
minute	-14.1749
hist	-14.1753
nomer	-14.1754
getwin	-14.1754
256	-14.1754
lft	-14.1754
angkat	-14.1756
qiu	-14.1756
inside	-14.1758
NULL	-14.1765
winC	-14.1765
grest	-14.1767
▁gem	-14.1768
samey	-14.1769
divis	-14.1769
Map	-14.1769
with	-14.1772
▁problem	-14.1775
+1000	-14.1775
MAT	-14.1776
amounts	-14.1778
sumdn	-14.1781
▁absolu	-14.1781
desk	-14.1782
loct	-14.1784
▁shee	-14.1784
lift	-14.1784
elevator	-14.1785
istrue	-14.1786
maxcol	-14.1788
findfa	-14.179
ttwo	-14.1791
chang	-14.1793
▁2020	-14.1793
sumtp	-14.1794
ction	-14.1794
StationsDistance	-14.1795
Divisor	-14.1795
[100500]	-14.1795
[24][60]	-14.1795
[405]	-14.1795
[609]	-14.1795
commamd	-14.1795
roduce	-14.1795
▁-2139062143	-14.1795
▁2139062143	-14.1795
▁235034914	-14.1795
▁definition	-14.1795
▁exlcusive	-14.1795
▁fucntion	-14.1795
▁instruction	-14.1795
▁lexicographic	-14.1795
▁matrices	-14.1795
▁{{0}}	-14.1795
[5100]	-14.1795
[700]	-14.1795
▁wolf	-14.1795
[600][600]	-14.1795
▁indefin	-14.1795
▁successful	-14.1795
[100003];	-14.1795
▁propblem	-14.1795
[106]	-14.1795
[601]	-14.1795
(1000007)	-14.1795
[502]	-14.1796
▁200025	-14.1796
▁downward	-14.1796
('#'	-14.1796
[123]	-14.1796
[5010]	-14.1796
▁sumcclock	-14.1796
▁sequentially	-14.1796
[103][103]	-14.1796
▁mySS	-14.1796
[125]	-14.1796
▁esle	-14.1796
[11][111]	-14.1796
▁777}	-14.1796
tely	-14.1796
▁9000	-14.1796
▁excluding	-14.1796
=100*	-14.1797
[300009];	-14.1797
6+7	-14.1797
▁ture	-14.1797
▁absolut	-14.1797
[4010]	-14.1798
▁palindrom	-14.1798
▁..|	-14.1798
▁itneger	-14.1798
[500000]	-14.1798
[200200]	-14.1798
▁1,000	-14.1799
▁postdecrement	-14.1799
/(2*	-14.1799
▁exclu	-14.1799
▁cntlw	-14.1799
flat	-14.1799
▁getdigits	-14.18
[545]	-14.18
[65]	-14.18
esq	-14.18
numCap	-14.1801
[360]	-14.1803
▁777	-14.1803
]-'0')-	-14.1803
+3*	-14.1803
▁""1/6""}	-14.1803
per	-14.1804
(101);	-14.1805
newsum	-14.1807
▁except	-14.1808
btdc	-14.1809
▁isPref	-14.181
▁split	-14.181
▁proverka	-14.181
▁theBrickS	-14.181
▁isPerfectSquare	-14.181
▁statmnts	-14.181
▁checkDigit	-14.181
▁checkTriangle	-14.181
▁cleaner	-14.181
▁getDigits	-14.181
▁gnomeSort	-14.181
▁17576	-14.181
▁ChuyenDoi	-14.181
▁FillArray	-14.181
▁FindNotFound	-14.181
▁FirstMulti	-14.181
▁GetStone	-14.181
▁SecondMulti	-14.181
▁addBinary	-14.181
▁areSame	-14.181
▁esPosible	-14.181
▁fatora	-14.181
▁hasLarge	-14.181
▁hasSmall	-14.181
▁isAbsent	-14.181
▁isDanger	-14.181
▁isDistinct	-14.181
▁orderArguments	-14.181
▁palinoal	-14.181
▁predicate	-14.181
▁buhuiwen	-14.181
▁countLuckyNum	-14.181
▁hasDigit	-14.181
▁sumofdigit	-14.181
▁isboundary	-14.181
▁moze	-14.181
▁setunion	-14.181
▁Lucky	-14.181
▁cherk	-14.181
▁already	-14.181
▁clockwise	-14.181
▁sushu	-14.1811
▁splitTime	-14.1811
▁unionn	-14.1811
▁370	-14.1811
▁isPrefix	-14.1811
▁checkbottom	-14.1811
▁CalTime	-14.1811
[1000007];	-14.1812
▁""444""	-14.1812
parat	-14.1812
▁sameletter	-14.1812
▁100020	-14.1813
mCount	-14.1813
249(	-14.1814
180.0	-14.1814
▁100000007	-14.1814
(1000000000	-14.1814
[256]	-14.1815
▁405	-14.1817
▁setIO	-14.1818
▁yinc	-14.1819
[6-	-14.1819
(202	-14.1819
▁sortby	-14.182
▁xuli	-14.1822
▁0.000001)	-14.1822
/11	-14.1825
got	-14.1826
▁lengh	-14.1827
▁kMaxN	-14.1827
▁mycmp	-14.1827
[2][2001][2001]	-14.1828
▁valini	-14.1828
box	-14.1829
▁lexi	-14.1832
[90]	-14.1834
▁excl	-14.1835
▁isCheck	-14.1835
▁1222	-14.1835
▁dragon	-14.1836
▁unio	-14.1836
ON	-14.1838
▁appen	-14.1838
▁sevenCount	-14.1839
▁selsort	-14.1839
▁xinc	-14.1839
▁rhs	-14.1841
▁lhs	-14.1842
▁4005	-14.1844
▁frac	-14.1844
ish	-14.1844
▁Eu	-14.1845
[101][6]	-14.1849
▁100006	-14.1849
atch	-14.1859
▁0123456789	-14.186
▁""-1"")	-14.1862
tone	-14.1863
▁tetr	-14.1864
▁resultsquare	-14.1864
cprice	-14.1865
▁isDt	-14.1866
▁vocals	-14.1869
pply	-14.187
▁360/	-14.187
▁phack	-14.1871
▁chec	-14.1877
eld	-14.1878
[1000006][2]	-14.1879
▁epar	-14.1888
'5'	-14.189
▁checkright	-14.1892
▁""10""	-14.1894
-32	-14.1896
/2*	-14.1899
0}	-14.1903
▁360));	-14.1924
scored	-14.1925
cnew	-14.1929
/2-1	-14.1937
vaa	-14.1946
[2][101],	-14.1947
foo	-14.1951
▁hanako	-14.1956
enc	-14.1957
▁checkleft	-14.196
▁LG	-14.1961
2=10	-14.1962
----	-14.1971
▁ABS	-14.1979
1069	-14.1986
LC	-14.199
▁checktop	-14.1997
▁charcter	-14.2
▁250.0)	-14.2009
[23]	-14.2011
vl	-14.2013
3-	-14.2016
vie	-14.2016
kir	-14.2018
SP	-14.2026
[15000	-14.2026
[10][100]	-14.2027
bnew	-14.2036
fre	-14.2038
▁printDiamond	-14.204
shela	-14.2047
-1)*(	-14.205
▁swp	-14.2054
winc	-14.2066
dic	-14.2069
+1)*(	-14.2073
▁1008	-14.2089
7"")	-14.2093
FA	-14.2095
[100][2]	-14.2107
cups	-14.2107
▁zhi	-14.2109
▁2200	-14.2111
▁continu	-14.2116
[105][3]	-14.2125
lll	-14.2129
ange	-14.2132
▁fA	-14.2144
)*3	-14.2149
90(	-14.2151
""2"")	-14.2156
fpow	-14.2157
[2005][2005];	-14.2171
hor	-14.2177
[1000][50	-14.2197
▁'9'))	-14.2204
[4][11]	-14.2215
Sort	-14.2223
))->	-14.2223
+'0'	-14.2224
BS	-14.2229
vowels	-14.2229
▁vA	-14.2256
nnl	-14.226
divs	-14.2294
▁[105][105]	-14.2301
gmax	-14.2335
[18]	-14.2347
/4)	-14.2351
▁enc	-14.2352
-1][2])	-14.2384
[3]+	-14.24
▁(*(	-14.2414
▁-100;	-14.2449
mq	-14.2509
dq	-14.2513
300009	-14.2528
cmin	-14.2548
outt	-14.2553
inch	-14.2585
▁100000000)	-14.2594
-4	-14.2598
5+1	-14.2601
180-	-14.2628
mna	-14.2629
▁increme	-14.2631
led	-14.2648
▁(27	-14.2655
[500005]	-14.2667
1=(	-14.2684
▁valu	-14.2692
[104];	-14.2698
▁{'\0'};	-14.2699
2[105];	-14.272
▁1000002;	-14.2757
sss	-14.2773
▁incre	-14.2797
[10	-14.2802
bY	-14.2832
▁prin	-14.2838
][1]][	-14.2867
]-97	-14.2912
▁58)	-14.2916
inimum	-14.2921
minD	-14.2931
('-'))	-14.2932
locale	-14.3014
-1])/	-14.3027
maxA	-14.3043
swaped	-14.3074
▁""?"")	-14.3088
2+1)	-14.3107
1[10000];	-14.3176
))/	-14.3216
xmin	-14.3221
▁slast	-14.3231
[5005]	-14.3278
-1]))	-14.3307
*((	-14.3319
16;	-14.3325
[1]-	-14.3338
▁'['))	-14.3359
▁('0'	-14.3389
qsort	-14.3441
-1][1])	-14.3442
6.	-14.3448
)-(	-14.345
▁1100;	-14.346
cstart	-14.3514
ascii	-14.3574
▁spe	-14.3606
mnd	-14.3719
▁')';	-14.372
2(2	-14.3742
suml	-14.3743
elements	-14.3743
▁81)	-14.3745
[0][0]=	-14.3774
[300001];	-14.3812
▁5002	-14.3821
[201][201];	-14.3835
▁some	-14.3855
wp	-14.3879
4"")	-14.388
▁Icosahedron	-14.3894
[26][26];	-14.3896
pairt	-14.3915
▁arrA	-14.3967
countr	-14.3984
2222	-14.3984
sumD	-14.4009
105	-14.4014
[26][26]	-14.4027
▁35)	-14.4048
▁20))	-14.4064
17];	-14.4066
[0][3])	-14.4073
▁!((	-14.4078
[2][0],	-14.4096
2)+(	-14.411
▁106	-14.4145
[201][201]	-14.4151
00005];	-14.4156
11111]	-14.4163
[300001]	-14.4176
bX	-14.4229
▁sorty	-14.4285
gra	-14.4327
[1])))	-14.4386
pu	-14.4392
!"	-14.4449
▁92)	-14.4482
fo	-14.4486
[56];	-14.4521
16)	-14.4533
4[0]	-14.4598
-1]*	-14.4626
[1111];	-14.4629
[107];	-14.4662
[1004];	-14.4662
1[101]	-14.4662
▁12345678	-14.4702
▁128;	-14.4765
1[++	-14.4821
60	-14.4823
movy	-14.4824
▁isP	-14.4828
686;	-14.4834
mnx	-14.4879
late	-14.4896
ou	-14.4912
4-	-14.4978
][7]	-14.4988
[35][35]	-14.4994
2[0]]	-14.4999
▁(7)	-14.5031
har	-14.5048
imum	-14.5059
[30010]	-14.5078
[111111]	-14.5081
[2000	-14.512
mmap	-14.512
2[10];	-14.5166
(1005	-14.5276
▁grea	-14.5316
▁203	-14.5319
nPos	-14.5347
][0]][	-14.535
he	-14.5363
27	-14.5394
▁500005	-14.5472
3+	-14.5476
[1007	-14.553
▁'('))	-14.5555
▁appe	-14.556
168	-14.5628
▁fu	-14.5636
[3000]	-14.5703
][1]=	-14.5713
▁#)	-14.5738
▁2500;	-14.5814
les	-14.5856
+1-	-14.5945
+1]=	-14.6007
101	-14.6007
(1000	-14.6026
10000	-14.6071
=100	-14.6083
[2]--;	-14.6103
'*'	-14.611
movx	-14.6113
paint	-14.6145
ose	-14.6193
▁15000	-14.6252
▁pat	-14.6287
ther	-14.6293
'>'	-14.6296
*1.0	-14.6331
50000	-14.6346
00000000;	-14.6346
slice	-14.6364
+2)	-14.6377
[3000	-14.6385
won	-14.6396
▁11111111	-14.6438
▁166	-14.6466
▁250.0	-14.6471
▁8000	-14.6478
)((-	-14.6497
▁400000	-14.6513
)*1.0	-14.6519
6+10	-14.6542
[501	-14.6544
[100002	-14.6575
block	-14.6589
▁900000000	-14.6592
(210	-14.6597
#	-14.6604
▁100.0	-14.6615
1[101	-14.6616
[100001	-14.6618
stringstream	-14.663
lin	-14.663
360	-14.6635
2[10000]	-14.6643
ubtract	-14.6658
group	-14.6673
60-	-14.668
beg	-14.6682
equal	-14.6685
ansA	-14.6689
pearl	-14.6693
*8	-14.6694
2333	-14.6694
(100005	-14.6705
ultiple	-14.671
egers	-14.671
creat	-14.671
ontrol	-14.6716
Waste	-14.6721
raw	-14.6722
9876	-14.6723
recorrer	-14.6723
poskupi	-14.6723
statment	-14.6723
1000000009	-14.6723
argmini	-14.6725
isgreater	-14.6726
unit	-14.6727
[10000	-14.6729
dragon	-14.673
""?"")	-14.6731
.000	-14.6732
seleccion	-14.6733
insercion	-14.6733
BigMod	-14.6733
buttons	-14.6733
isyuan	-14.6733
thislen	-14.6733
dodec	-14.6733
wynb	-14.6733
imulai	-14.6733
couner	-14.6733
cyka	-14.6734
html	-14.6734
statements	-14.6734
colour	-14.6734
exrt	-14.6734
choice	-14.6734
hutch	-14.6734
source	-14.6734
tstudy	-14.6735
200005	-14.6735
CalculatePrimes	-14.6736
arreglo	-14.6736
simon	-14.6736
CountOfMoney	-14.6736
allAreSame	-14.6736
antisimon	-14.6736
coupons	-14.6736
dependency	-14.6736
downloaded	-14.6736
extrema	-14.6736
isNoldPrime	-14.6736
isPalindrome	-14.6736
isPrimeRoot	-14.6736
maxSections	-14.6736
noldbach	-14.6736
refrence	-14.6736
vashya	-14.6736
cardOnTable	-14.6736
Orange	-14.6736
isluck	-14.6736
username	-14.6736
tipo	-14.6736
zhu	-14.6736
safe	-14.6736
digui	-14.6736
curWorst	-14.6736
triangle	-14.6736
gifts	-14.6736
maior	-14.6737
maximo	-14.6737
borderPoints	-14.6737
raices	-14.6737
downLetter	-14.6737
identical	-14.6737
tempSame	-14.6737
upLetter	-14.6737
parity	-14.6737
watched	-14.6737
nrsel	-14.6737
satuan	-14.6737
smlr	-14.6737
streak	-14.6737
1000000010	-14.6737
SumOf	-14.6737
nowsafe	-14.6737
""1111111""	-14.6737
leaves	-14.6738
cheapest	-14.6738
newnut	-14.6738
secnumbs	-14.6738
assistantTemps	-14.6738
bohlam	-14.6738
Names	-14.6738
house	-14.6738
secretaryNum	-14.6738
""8<""	-14.6738
shoes	-14.6738
correct	-14.6738
amigos	-14.6738
maxName	-14.6738
testcases	-14.6738
vow	-14.6738
helper	-14.6738
hunger	-14.6738
catur	-14.6738
delta	-14.6738
bexc	-14.6738
curDay	-14.6738
Next	-14.6739
banyakganjil	-14.6739
ganjilterkecil	-14.6739
works	-14.6739
actual	-14.6739
minimun	-14.6739
chance	-14.6739
wincandidate	-14.6739
passengers	-14.6739
termina	-14.6739
initial	-14.6739
javab	-14.6739
nextPrime	-14.6739
capacity	-14.6739
tedad	-14.6739
denominator	-14.6739
friends	-14.6739
divisores	-14.6739
putit	-14.6739
Input	-14.6739
walk	-14.6739
valori	-14.6739
jiati	-14.674
location	-14.674
banyak	-14.674
Roz	-14.674
coord	-14.674
convert	-14.674
person	-14.674
buffer	-14.674
ANS	-14.674
inches	-14.674
numOps	-14.674
until	-14.674
space	-14.674
multiply	-14.674
bran	-14.6741
maap	-14.6741
hate	-14.6741
wait	-14.6741
merger	-14.6741
city	-14.6742
Pow	-14.6742
choc	-14.6742
ispalindrome	-14.6743
lzl	-14.6743
succ	-14.6743
getNum	-14.6744
hot	-14.6744
signal	-14.6744
love	-14.6744
insertion	-14.6744
self	-14.6745
444	-14.6745
=99999999	-14.6745
other	-14.6745
goal	-14.6745
tren	-14.6746
minsq	-14.6746
qbe	-14.6747
flagee	-14.6747
curAns	-14.6747
updt	-14.6748
sho	-14.6748
basi	-14.6748
deq	-14.6749
curMin	-14.6749
5050	-14.6749
curlower	-14.6749
uion	-14.6749
absent	-14.675
control	-14.6752
moveS	-14.6752
▁(36	-14.6753
ecrease	-14.6755
doit	-14.6755
nextprime	-14.6756
""144""	-14.6756
levl	-14.6756
""0000000""	-14.6758
contM	-14.6758
[1000009]	-14.6758
timr	-14.6758
minson	-14.676
kill	-14.676
lvl	-14.6761
allB	-14.6762
numedges	-14.6763
larger	-14.6764
everse	-14.6765
▁-100000	-14.6765
izq	-14.6765
dari	-14.6765
bitset	-14.6765
▁caden	-14.6767
dec	-14.6769
unction	-14.677
ttttttttttttt	-14.6772
ffffff	-14.6774
buy	-14.6774
mcd	-14.6776
xian	-14.6776
sizebul	-14.6778
prefixed	-14.678
texto	-14.678
dua	-14.6781
zerocnt	-14.6781
firstOn	-14.6782
pearls	-14.6783
ctahedron	-14.6783
dish	-14.6783
rps	-14.6783
msh	-14.6783
▁inclu	-14.6783
▁stdou	-14.6784
whil	-14.6784
norm	-14.6785
▁-3000	-14.6785
kpk	-14.6785
-1};	-14.6785
*60	-14.6786
currgcd	-14.6789
equals	-14.6789
midTime	-14.679
allA	-14.679
etrahedron	-14.6791
odecahedron	-14.6791
2000005	-14.6791
sumeven	-14.6792
strArr	-14.6792
▁-9999	-14.6793
▁-99999	-14.6793
maxlevel	-14.6794
2001,	-14.6794
/250)	-14.6794
cosahedron	-14.6794
▁123456	-14.6794
turned	-14.6795
ature	-14.6795
cessful	-14.6795
[811]	-14.6795
fffffffffffffff	-14.6795
▁BSearch	-14.6795
▁addMod	-14.6795
▁catalan	-14.6795
▁getDivisors	-14.6795
▁maxPrimeFactors	-14.6795
▁turimi	-14.6795
(1.500)	-14.6795
(123456)	-14.6795
(5.100)	-14.6795
)10.00)	-14.6795
)5.00)	-14.6795
0,20,10	-14.6795
0153286060651209	-14.6795
1(100020)	-14.6795
1,3,5,7,	-14.6795
2(100000000)	-14.6795
2653589793238	-14.6795
691074	-14.6795
=2000000007	-14.6795
OfEratosthenes	-14.6795
[100505]	-14.6795
[1111111]	-14.6795
[2600][2600]	-14.6795
[30000][21]	-14.6795
[3001];	-14.6795
[3007];	-14.6795
[3010]	-14.6795
[34][34]	-14.6795
[361]	-14.6795
[6005][5]	-14.6795
[696969]	-14.6795
[999999]	-14.6795
▁""####""	-14.6795
▁""01235689""	-14.6795
▁""12870""	-14.6795
▁""221001""}	-14.6795
▁""252""	-14.6795
▁""3432""	-14.6795
▁""48620""	-14.6795
▁""924""	-14.6795
▁-12312	-14.6795
▁-2147483647	-14.6795
▁-2147483648	-14.6795
▁0.00001)	-14.6795
▁1000111222	-14.6795
▁1061109567	-14.6795
▁1073741824	-14.6795
▁1123123123	-14.6795
▁129605	-14.6795
▁131071	-14.6795
▁156544555	-14.6795
▁19260817	-14.6795
▁2000000007	-14.6795
▁2012345678	-14.6795
▁2147483640	-14.6795
▁21474836470000	-14.6795
▁2193809	-14.6795
▁23333333	-14.6795
▁31415	-14.6795
▁34298343	-14.6795
▁69696969696	-14.6795
▁8888888890	-14.6795
▁9999999999998	-14.6795
▁BASE	-14.6795
▁DELTA	-14.6795
▁SPACE	-14.6795
▁argham	-14.6795
▁custom	-14.6795
▁nCrModp	-14.6795
▁pagamento	-14.6795
▁product	-14.6795
▁unchanged	-14.6795
123457	-14.6795
243554	-14.6795
▁4610000	-14.6795
▁Magic	-14.6795
▁continuous	-14.6795
▁immediate	-14.6795
▁isPresent	-14.6795
▁myCompare	-14.6795
[800];	-14.6795
71720	-14.6795
▁""70""	-14.6795
77	-14.6795
[1007][1007]	-14.6795
[2505]	-14.6795
▁LastCommon	-14.6795
▁ouput	-14.6795
▁verdict	-14.6795
[301][301]	-14.6795
UDRL	-14.6795
[1110];	-14.6795
▁200000050	-14.6795
[1020]	-14.6795
..............	-14.6795
▁0.0001)	-14.6795
▁900001	-14.6795
]-1]-1]-1	-14.6796
▁-699999999	-14.6796
▁378	-14.6796
[1008]	-14.6796
▁exclusvie	-14.6796
[1000004];	-14.6796
▁atoifunc	-14.6796
▁buck	-14.6796
[116]	-14.6796
['<']	-14.6796
Multiplication	-14.6796
▁rakm	-14.6796
▁Defin	-14.6796
▁toString	-14.6796
▁10069	-14.6796
▁slope	-14.6796
▁9020	-14.6796
▁40000001	-14.6796
[66]	-14.6796
▁1000000100	-14.6796
[150000]	-14.6796
▁quickpow	-14.6796
[4005]	-14.6796
▁-2501	-14.6796
23846264338327	-14.6796
▁Unset	-14.6796
▁3.14	-14.6796
[151]	-14.6797
▁inttostr	-14.6797
▁9.8	-14.6797
/250)*	-14.6797
▁454	-14.6797
▁""20""	-14.6797
▁10.00)	-14.6797
▁initially	-14.6797
▁5.00)	-14.6798
▁tohop	-14.6798
▁-999999	-14.6798
▁500007	-14.6798
(""-"")	-14.6798
▁cmpfunc	-14.6798
[320]	-14.6798
▁222222	-14.6798
▁438	-14.6798
▁{37,	-14.6799
exception	-14.6799
▁solveequal	-14.6799
finall	-14.6799
""012	-14.6799
blocka	-14.6799
▁llMin	-14.6799
4(2002)	-14.6799
▁477}	-14.6799
▁200050	-14.68
▁gqt	-14.68
[111][111]	-14.68
[150005]	-14.68
▁588	-14.68
▁2100000000	-14.6801
▁-999	-14.6801
▁80005	-14.6801
[1200]	-14.6801
*4+	-14.6801
200300	-14.6801
-2)/	-14.6802
▁bakes	-14.6802
▁1120	-14.6803
(1001);	-14.6803
<26	-14.6804
▁occur	-14.6804
▁9012	-14.6804
▁llMax	-14.6804
[59]	-14.6805
*(2*	-14.6805
▁382	-14.6805
acter	-14.6805
-----------+""	-14.6806
▁-30000	-14.6806
▁300030	-14.6806
▁627	-14.6807
▁-10000000	-14.6807
▁1600	-14.6807
▁ingeger	-14.6807
bot	-14.6807
48);	-14.6808
▁3007	-14.6808
/2)+	-14.6808
links	-14.6808
▁identi	-14.6808
[34]	-14.6809
('1')	-14.6809
156	-14.681
▁10000020	-14.681
RAND	-14.681
33399	-14.6812
▁40.0	-14.6812
▁346	-14.6813
Mcost	-14.6815
tag	-14.6815
curY	-14.6817
▁lastPos	-14.6819
tttttttttttttt	-14.6819
▁500010	-14.682
▁50.0	-14.6821
[14]	-14.6822
▁incl	-14.6822
▁numCup	-14.6822
winB	-14.6822
▁636	-14.6822
nslice	-14.6823
=55	-14.6823
▁576	-14.6823
coin	-14.6825
-50	-14.6825
27000	-14.6826
cake	-14.6828
=?	-14.6828
▁nPr	-14.6828
▁fastpow	-14.6829
▁MAXULL	-14.683
1,-1,0,0	-14.683
▁526	-14.6832
▁5100	-14.6833
▁634	-14.6834
▁20000000000	-14.6834
four	-14.6835
5+10	-14.6837
=1000000	-14.6837
▁modmul	-14.6839
Res	-14.6839
▁301002	-14.684
/2)-	-14.684
▁FF	-14.684
▁23333	-14.6841
▁""->""	-14.6841
▁995	-14.6842
▁535	-14.6842
-1])*	-14.6844
minvalue	-14.6844
▁-1000000000000	-14.6845
=3*	-14.6846
cntone	-14.6849
▁'['}	-14.685
▁404	-14.685
[150][1000]	-14.685
▁-135	-14.6851
failbit	-14.6851
lcp	-14.6853
liz	-14.6854
idit	-14.6854
▁10000000050	-14.6854
▁1000008	-14.6856
2[0]-'	-14.6858
▁creat	-14.6861
cut	-14.6862
▁maxfunc	-14.6864
▁minfunc	-14.6867
▁9876	-14.6868
▁poskupi	-14.6868
▁recorrer	-14.6868
▁statment	-14.6869
1000];	-14.6869
▁endapp	-14.6869
gers	-14.6869
▁-40	-14.687
mz	-14.6871
bulbs	-14.6873
▁-1}}	-14.6873
▁100015	-14.6875
1-0	-14.6875
▁20005	-14.6879
▁-1000001	-14.6881
player	-14.6883
▁unit	-14.6883
▁391	-14.6883
[202	-14.6883
▁argmini	-14.6884
▁-99	-14.6885
matr	-14.6888
▁800	-14.6889
/6""	-14.689
▁[26][26]	-14.689
▁2505	-14.689
=4*	-14.6891
▁1,2,3	-14.6891
[0]='	-14.6892
east	-14.6893
syl	-14.6895
▁64]++;	-14.6897
eCount	-14.6897
rez	-14.6898
▁1234	-14.6904
press	-14.6905
curX	-14.6906
nak	-14.6907
▁(7-	-14.6907
samex	-14.6908
▁Add	-14.6908
▁-201	-14.6908
▁retrun	-14.6909
ashu	-14.6911
▁3.0	-14.6911
▁7.0	-14.6913
amic	-14.6915
▁520	-14.6917
lasth	-14.6924
▁179	-14.6925
▁1/1	-14.6926
[7]+	-14.6928
(105)	-14.693
""[]""	-14.693
,5,1	-14.6931
▁68)	-14.6933
(100005)	-14.6936
▁Or	-14.6937
▁355	-14.6942
oct	-14.6947
[35][2]	-14.6947
marked	-14.6947
▁-10005	-14.6947
tplayers	-14.6948
43}	-14.6948
▁10000010	-14.695
66666	-14.6955
]=((	-14.6956
201010	-14.6957
▁30003	-14.6957
▁leve	-14.6958
drinks	-14.6958
▁1000000007}	-14.6964
▁merger	-14.6965
diry	-14.6966
modu	-14.6966
▁digsum	-14.6975
▁myC	-14.6982
soma	-14.6982
▁guests	-14.6985
▁gsd	-14.6989
)(++	-14.6994
multimap	-14.6995
▁12}	-14.6999
▁numzero	-14.7002
▁199	-14.7004
▁(-7)	-14.7008
oil	-14.701
=20	-14.7012
(105	-14.7012
2=2*	-14.7013
▁subset	-14.7014
months	-14.7016
▁tek	-14.7024
]-'0']=	-14.7029
5][100	-14.7031
ract	-14.7032
(25	-14.7043
1000010	-14.7044
[6]+	-14.7048
▁(((1	-14.705
inpp	-14.7053
urn	-14.7056
prevr	-14.7059
viy	-14.7059
rprev	-14.706
▁645	-14.7066
ple	-14.7067
▁mergeSort	-14.707
chI	-14.7073
pas	-14.7076
BW	-14.7078
[50000	-14.7091
10000010	-14.7099
▁3.0)	-14.71
*2+1)	-14.7101
▁50010	-14.7109
▁1000000003	-14.7111
llow	-14.7114
▁8000;	-14.7123
+1000]	-14.7125
▁999999999)	-14.7127
▁1000020	-14.7128
▁1020	-14.713
3)/	-14.7132
▁274	-14.7145
2*10	-14.7156
▁239	-14.7166
▁111111111	-14.7167
=51	-14.7172
2384626433832	-14.7174
hari	-14.7175
%2]	-14.7179
[100001][2]	-14.7183
▁stor	-14.7184
▁562	-14.7196
5][25]	-14.7198
▁1999999999	-14.7211
PS	-14.7213
[200][3]	-14.7216
((-1	-14.722
nope	-14.722
ort	-14.7223
dip	-14.7224
1[4][	-14.7226
-1]/	-14.7232
▁""01""	-14.7236
sw	-14.7246
▁modPower	-14.726
1666	-14.7263
▁1.00	-14.7264
[5]+	-14.7269
srt	-14.7278
15];	-14.7281
4*	-14.7281
nimpar	-14.7287
has	-14.7291
beginat	-14.7299
▁517	-14.7312
verif	-14.7317
bad	-14.7334
odds	-14.7335
""()""	-14.7335
4000005	-14.7338
/2-	-14.7343
'0')	-14.7353
▁eraseN	-14.7353
2[35]	-14.7353
answers	-14.7356
pref	-14.7356
dirx	-14.7362
▁wid	-14.7362
20090	-14.7365
▁2000000005	-14.7368
mak	-14.7376
▁2001;	-14.7378
sel	-14.7378
▁plu	-14.7382
150005	-14.7384
pA	-14.7387
2653589793238462	-14.7389
2000010	-14.7394
icos	-14.7395
nxt	-14.7396
dim	-14.74
-1]*2	-14.7408
▁',-	-14.7412
wei	-14.7413
3000010	-14.7414
▁116	-14.7419
PR	-14.7422
RP	-14.7422
▁66	-14.7428
DX	-14.7431
▁68	-14.7433
())->	-14.7439
1200	-14.744
▁160	-14.744
upd	-14.7443
[200	-14.7446
▁modadd	-14.7449
▁MAXLL	-14.7459
maps	-14.7495
▁ksm	-14.7505
jum	-14.751
pet	-14.751
2=99999999	-14.7512
TB	-14.7524
timer	-14.7546
RC	-14.7554
▁adjo	-14.756
xfffffff	-14.7571
2[15];	-14.758
2*2	-14.7584
1[3][	-14.7584
▁cift	-14.7588
▁(20	-14.7593
levels	-14.7608
ice	-14.7622
nCount	-14.7625
▁10004;	-14.7626
tmpA	-14.7628
rom	-14.7663
firstw	-14.7666
▁10055	-14.7674
▁try	-14.7676
stu	-14.769
1[1]-	-14.7699
lab	-14.7702
alp	-14.7709
100	-14.7711
▁7}	-14.7716
▁-111	-14.7724
5555	-14.7757
▁(3-	-14.7777
▁boostI	-14.778
▁319	-14.7782
▁(100	-14.7789
her	-14.7804
▁!=0)	-14.7806
▁Not	-14.7812
SS	-14.7814
xcost	-14.7827
▁1]))))	-14.7831
[10001	-14.7834
""."")	-14.7837
flagB	-14.784
99999999;	-14.784
▁100000000001	-14.7844
nul	-14.7846
][3]++	-14.7851
wh	-14.7853
minib	-14.7874
minB	-14.7894
his	-14.79
1=-1	-14.7901
10005	-14.7914
▁org	-14.7915
]==0	-14.7921
1[102];	-14.795
▁94	-14.7953
IT	-14.7957
▁58;	-14.7978
▁2009	-14.7989
2525	-14.7993
▁((!	-14.7999
qw	-14.8024
=0.00000000	-14.8031
[300300];	-14.8032
▁2000005;	-14.8057
/2+	-14.8061
▁(1*	-14.8061
▁1.5;	-14.8063
(4)	-14.8068
nnp	-14.8077
▁tobin	-14.8081
